{"!": 328, "!!": 12846, "!!!": 16506, "!!!!": 32376, "!!!!!": 44371, "!!!!!!!!": 47038, "!!\"": 42078, "!\"": 2901, "!\",": 42255, "!\".": 44065, "!'": 9376, "!'\"": 35347, "!)": 13278, "!),": 33031, "!).": 31897, "!,": 28114, "!--": 48546, "!.": 42202, "!/": 47813, "!:": 44626, "!?": 42648, "!?\"": 48474, "!]": 47161, "\"": 113, "\"!": 44926, "\"\"": 48149, "\"\"\"": 49849, "\"'": 46150, "\"(": 47919, "\")": 8070, "\"))": 49293, "\"),": 16844, "\").": 18653, "\");": 45751, "\",": 1297, "\",\"": 4332, "\"-": 34133, "\".": 845, "\"...": 47096, "\".[": 49070, "\"/>": 49784, "\":": 7862, "\":\"": 4805, "\":\"\",\"": 44374, "\":\"\"},{\"": 50020, "\":\"/": 19207, "\":-": 50000, "\":[": 33525, "\":[\"": 40389, "\":[{\"": 49817, "\":{\"": 14220, "\";": 25718, "\">": 46479, "\"><": 49995, "\"></": 49853, "\"?": 24681, "\"[": 48742, "\"]": 42248, "\"],": 49177, "\"],\"": 44690, "\"]=>": 50154, "\"}": 48805, "\"},": 49852, "\"},\"": 17495, "\"},{\"": 49738, "\"}],\"": 49923, "\"\u00e2\u0122\u00a6": 46353, "\"\u00e2\u0122\u0136": 24337, "#": 10431, "##": 48342, "###": 48134, "####": 49629, "########": 49727, "################": 49806, "################################": 49674, "#$": 49255, "#$#$": 50065, "$": 1629, "$$": 42654, "$$$$": 49193, "$,": 47110, "$.": 48292, "${": 49316, "%": 207, "%\"": 47460, "%%": 49318, "%%%%": 50037, "%)": 8871, "%),": 20186, "%).": 23528, "%);": 45973, "%,": 4234, "%-": 27868, "%.": 2153, "%:": 45737, "%;": 31558, "%]": 48513, "&": 947, "&&": 49145, "'": 108, "'\"": 24464, "''": 17809, "''''": 49690, "''.": 41667, "'';": 49525, "')": 27645, "'),": 41734, "').": 44294, "');": 47033, "',": 3934, "',\"": 24095, "','": 47429, "'-": 32269, "'.": 2652, "'.\"": 24992, "'/": 44162, "':": 13373, "';": 23500, "'>": 49836, "'?": 35661, "']": 44403, "'d": 1017, "'ll": 581, "'m": 437, "'re": 214, "'s": 18, "'t": 75, "'ve": 348, "(": 1640, "(\"": 46469, "($": 44688, "(&": 49763, "('": 45803, "((": 48461, "()": 43048, "())": 49338, "());": 49291, "(),": 49196, "().": 49123, "():": 49536, "();": 47006, "(){": 49215, "(*": 49570, "(-": 48614, "([": 48443, "(\\": 49921, "(_": 49604, "({": 48377, ")": 43, ")!": 43002, ")\"": 30831, ")\",": 45894, ")'": 30171, ")(": 21704, "))": 35122, ")))": 47619, "))))": 49639, ")),": 46934, ")).": 46904, "));": 48749, ")*": 44418, ")+": 49197, "),": 238, "),\"": 13198, ")-": 19281, ")--": 43564, ").": 322, ").\"": 18456, ")...": 44447, ").[": 48999, ")/": 36098, "):": 3256, ");": 4397, ")</": 50017, ")=": 49143, ")=(": 50016, ")?": 26610, ")[": 48462, ")\\": 49394, ")]": 46077, ")].": 49151, "){": 48512, ")|": 49275, ")}": 48950, ")\u00e2\u0122\u0136": 31698, "*": 3226, "*)": 44431, "**": 12606, "***": 15057, "****": 30115, "*****": 40255, "********": 44116, "************": 44706, "****************": 41478, "********************************": 47639, "*,": 36592, "*.": 44460, "*/": 48835, "*/(": 50078, "*:": 47365, "*=-": 50255, "+": 2744, "+(": 43988, "+)": 42053, "++": 42964, "++)": 49346, "+++": 48845, "++++": 49091, "++++++++": 49557, "++++++++++++++++": 49258, "++;": 49789, "+,": 30787, "+.": 27079, "+=": 49419, ",": 6, ",\"": 60, ",'": 1598, ",'\"": 10076, ",''": 10559, ",)": 43003, ",,": 38581, ",,,,": 49563, ",,,,,,,,": 49882, ",-": 45693, ",.": 39747, ",...": 43754, ",[": 47789, ",\u00e2\u0122\u0136": 49058, "-": 12, "-\"": 45390, "-$": 10068, "-'": 27144, "-(": 38203, "-)": 45406, "-+": 48660, "-+-+": 46142, "-+-+-+-+": 36467, "-,": 20551, "--": 5579, "--+": 49903, "---": 24965, "----": 44259, "-----": 46343, "------": 44516, "-------": 48712, "--------": 49198, "---------": 47826, "----------": 45072, "-----------": 49183, "------------": 46156, "-------------": 39550, "--------------": 41110, "---------------": 31175, "----------------": 24524, "--------------------": 47655, "------------------------": 46580, "--------------------------------": 46939, "------------------------------------------------": 49374, "--------------------------------------------------------": 49599, "----------------------------------------------------------------": 49308, "-->": 49625, "-.": 42760, "->": 46613, "-[": 48833, "-|": 49675, ".": 4, ".\"": 72, ".\"\"": 39732, ".\")": 30550, ".\",": 45863, ".\",\"": 46671, ".\"[": 45333, ".#": 36917, ".$": 46992, ".'": 955, ".'\"": 9957, ".''": 13864, ".''.": 49888, ".(": 21154, ".)": 1592, ".),": 12345, ".).": 24521, ".):": 38947, ".*": 26487, ".,": 482, ".,\"": 30697, ".-": 3358, ".--": 42604, "..": 7586, "...": 734, "...\"": 27223, "...)": 41137, "....": 17220, ".....": 38917, "......": 43796, ".......": 44629, "........": 42514, ".........": 45912, ".............": 49170, "................": 47793, "..................": 49389, "........................": 43353, "................................": 46082, "................................................................": 48371, "...?": 47570, "...]": 48872, "../": 49445, "./": 21594, ".:": 12651, ".;": 10116, ".<": 49069, ".</": 49803, ".>>": 48784, ".?": 36380, ".[": 31274, ".]": 21838, "._": 48030, ".}": 49463, ".\u00e2\u0122\u0135": 34124, ".\u00e2\u0122\u0136": 24922, ".\u00e3\u0122\u012f": 50088, ".\u00ef\u00bf\u00bd": 35547, "/": 73, "/\"": 47770, "/#": 29064, "/$": 33137, "/(": 45381, "/)": 43521, "/*": 49051, "/**": 49795, "/+": 47155, "/,": 46253, "/-": 40398, "/.": 11665, "//": 42326, "///": 49104, "////": 48900, "////////": 49283, "////////////////": 49296, "////////////////////////////////": 49216, "/>": 49666, "/?": 29482, "/_": 48119, "/\u00e2\u0122\u012d": 49213, "0": 288, "00": 612, "000": 151, "0000": 14200, "00000": 25034, "000000": 33413, "0000000": 45121, "00000000": 45947, "0000000000000000": 49393, "00007": 46983, "0001": 27623, "0002": 42436, "001": 19089, "0010": 47342, "002": 19130, "00200000": 50050, "003": 33490, "004": 37114, "005": 31866, "006": 38049, "007": 35723, "008": 37277, "009": 37892, "01": 2663, "010": 30583, "0100": 45231, "011": 35620, "012": 37524, "013": 37129, "014": 37631, "015": 33279, "016": 36192, "017": 35142, "018": 33352, "019": 36632, "02": 4197, "020": 33783, "0200": 46901, "021": 41656, "022": 39549, "023": 40631, "024": 40044, "025": 36453, "026": 40521, "027": 40819, "028": 40709, "029": 41168, "03": 3933, "030": 37332, "031": 41317, "032": 40935, "033": 40958, "034": 41401, "035": 39141, "036": 41424, "04": 3387, "040": 36016, "041": 41450, "043": 41665, "044": 40847, "045": 39664, "046": 41409, "047": 41782, "048": 40976, "05": 2546, "050": 25423, "052": 40717, "055": 39558, "057": 41298, "059": 41873, "06": 4124, "060": 37143, "07": 3570, "070": 37905, "075": 36754, "08": 3669, "080": 32089, "083": 41260, "088": 40892, "089": 41485, "09": 3546, "090": 37767, "1": 134, "10": 698, "100": 1866, "1000": 20078, "10000": 47303, "1001": 45792, "1007": 47281, "101": 12636, "1016": 45820, "102": 17024, "1024": 47477, "1027": 48636, "103": 18159, "104": 17573, "105": 15274, "106": 18427, "107": 19000, "108": 18844, "1080": 41305, "109": 18616, "11": 1225, "110": 11670, "1100": 40830, "111": 17500, "1111": 43993, "112": 17729, "113": 19547, "114": 20695, "115": 15314, "116": 22418, "117": 21598, "118": 21369, "119": 21397, "12": 1092, "120": 10213, "1200": 36643, "121": 22388, "122": 21948, "123": 19644, "124": 22960, "125": 11338, "126": 24108, "127": 24174, "128": 21540, "129": 21867, "13": 1558, "130": 11343, "131": 25433, "132": 24083, "133": 25037, "134": 25050, "135": 18508, "136": 25966, "137": 25319, "138": 25352, "139": 25488, "14": 1570, "140": 14753, "141": 27142, "142": 26738, "143": 26332, "144": 25208, "145": 16504, "146": 27457, "147": 26629, "148": 26300, "149": 22928, "15": 996, "150": 6115, "1500": 36559, "151": 27761, "152": 27097, "153": 27982, "154": 25983, "155": 21403, "156": 27915, "157": 27489, "158": 26758, "159": 27129, "16": 1549, "160": 13726, "1600": 40807, "161": 28490, "162": 29899, "163": 29425, "164": 28988, "165": 21933, "166": 27855, "167": 25540, "168": 25676, "169": 28219, "17": 1360, "170": 16218, "171": 29572, "172": 29250, "173": 30664, "174": 29221, "175": 16925, "176": 29431, "177": 28129, "178": 28799, "179": 26340, "18": 1366, "180": 14515, "1800": 38510, "181": 30818, "182": 27127, "183": 30662, "184": 29023, "185": 23334, "186": 29024, "187": 30024, "188": 28871, "189": 28945, "19": 1646, "190": 20109, "1900": 42442, "191": 31080, "192": 29362, "1920": 44328, "193": 30995, "194": 30548, "1945": 45391, "195": 23688, "1950": 43545, "1959": 46621, "196": 30137, "1960": 41355, "1963": 44993, "1964": 45629, "1965": 45716, "1966": 45485, "1967": 44344, "1968": 44808, "1969": 45264, "197": 30586, "1970": 38051, "1971": 45433, "1972": 44733, "1973": 44521, "1974": 44880, "1975": 43868, "1976": 44835, "1977": 44423, "1978": 44475, "1979": 43768, "198": 28773, "1980": 34499, "1981": 44582, "1982": 44133, "1983": 43887, "1984": 42080, "1985": 42770, "1986": 43479, "1987": 43587, "1988": 42853, "1989": 41351, "199": 21118, "1990": 29411, "1991": 42478, "1992": 41073, "1993": 41655, "1994": 41525, "1995": 41295, "1996": 40636, "1997": 40954, "1998": 39476, "1999": 37446, "2": 176, "20": 844, "200": 2619, "2000": 17472, "200000": 49044, "2001": 33185, "2002": 31099, "2003": 35153, "2004": 34972, "2005": 32857, "2006": 32701, "2007": 30741, "2008": 27418, "2009": 23301, "201": 16295, "2010": 24789, "2011": 22748, "2012": 14517, "2013": 10684, "2014": 16310, "2015": 14420, "2016": 9029, "2017": 3789, "2018": 2464, "2019": 10626, "202": 25155, "2020": 24837, "203": 25534, "204": 27508, "20439": 49955, "205": 22814, "206": 27639, "207": 22782, "208": 26919, "209": 27434, "21": 2146, "210": 22146, "211": 30050, "212": 22145, "213": 29127, "214": 27153, "215": 24355, "216": 26912, "217": 30003, "218": 30487, "219": 31105, "22": 2036, "220": 16846, "2200": 41573, "221": 28730, "222": 16986, "223": 27996, "224": 28835, "225": 18614, "226": 29190, "227": 29240, "228": 29185, "229": 26957, "23": 1922, "230": 20352, "231": 29949, "232": 28503, "233": 29291, "234": 28621, "235": 23821, "236": 29936, "237": 30069, "238": 29567, "239": 29561, "24": 1978, "240": 18847, "241": 31576, "242": 28698, "243": 30320, "244": 30043, "245": 24990, "246": 30676, "247": 27011, "248": 28654, "249": 25048, "25": 1244, "250": 5714, "2500": 41374, "251": 32306, "252": 29911, "253": 31184, "254": 30959, "255": 22260, "256": 24554, "257": 31297, "258": 26866, "259": 29961, "26": 2481, "260": 21566, "261": 32972, "262": 29630, "263": 29969, "264": 29137, "265": 26330, "266": 31353, "267": 28497, "268": 31145, "269": 31416, "27": 2518, "270": 21063, "271": 32145, "272": 30687, "273": 26273, "274": 30930, "275": 21138, "276": 31782, "277": 31262, "278": 30442, "279": 28854, "28": 2517, "280": 21070, "281": 32071, "282": 31219, "283": 32307, "284": 32769, "285": 26373, "286": 30168, "287": 30928, "288": 29443, "289": 28390, "29": 2890, "290": 24675, "291": 33657, "292": 31707, "293": 32329, "294": 32004, "295": 27319, "296": 32913, "297": 33342, "298": 32646, "299": 23942, "3": 246, "30": 541, "300": 2965, "3000": 31640, "301": 28167, "302": 29187, "303": 29274, "304": 31276, "305": 27062, "306": 32230, "307": 31998, "308": 31335, "309": 31573, "31": 2983, "310": 23417, "311": 35925, "312": 29930, "313": 32827, "314": 35111, "315": 28355, "316": 35092, "317": 32072, "318": 34025, "319": 33410, "32": 2881, "320": 17655, "321": 30111, "322": 34411, "323": 32624, "324": 35225, "325": 24133, "326": 35766, "327": 35253, "328": 35252, "329": 33269, "33": 3103, "330": 21190, "331": 34071, "332": 33911, "333": 25631, "3333": 46152, "334": 33325, "335": 28020, "336": 27624, "337": 32620, "338": 32088, "339": 31994, "34": 3079, "340": 24334, "341": 34801, "342": 33192, "343": 31920, "344": 31907, "345": 26868, "346": 34088, "347": 32532, "348": 27765, "349": 27758, "35": 2022, "350": 10056, "351": 35340, "352": 33674, "353": 27044, "354": 34615, "355": 29794, "356": 32760, "357": 30628, "358": 34392, "359": 34414, "36": 3367, "360": 14586, "361": 33736, "362": 35665, "363": 34401, "364": 34639, "365": 24406, "366": 34357, "367": 34036, "368": 27594, "369": 34248, "37": 3272, "370": 21713, "371": 34923, "372": 34322, "373": 34099, "374": 35208, "375": 21353, "376": 35422, "377": 33588, "378": 34890, "379": 34309, "38": 3170, "380": 19148, "381": 35155, "382": 35178, "383": 29980, "384": 35324, "385": 30042, "386": 34109, "387": 32498, "388": 34067, "389": 34682, "39": 3416, "390": 27873, "391": 35848, "392": 36350, "393": 35408, "394": 35705, "395": 31330, "396": 33275, "397": 34991, "398": 35556, "399": 26871, "4": 306, "40": 1749, "400": 4017, "4000": 38161, "401": 33871, "402": 34324, "403": 34030, "404": 32957, "405": 31191, "406": 35629, "407": 34539, "408": 32303, "409": 34295, "41": 4006, "410": 31132, "411": 35775, "412": 31185, "413": 36108, "414": 35980, "415": 30092, "416": 30950, "417": 36711, "418": 37182, "419": 37383, "42": 3714, "420": 23537, "421": 38785, "422": 37319, "423": 34986, "424": 35784, "425": 28171, "426": 37911, "427": 36610, "428": 38151, "429": 31877, "43": 3897, "430": 29821, "431": 39015, "432": 37296, "433": 38514, "434": 38063, "435": 33115, "436": 38324, "437": 38999, "438": 37736, "439": 38671, "44": 3305, "440": 26634, "441": 36011, "442": 35739, "443": 35741, "444": 29903, "445": 34964, "446": 33973, "447": 35337, "448": 36246, "449": 32940, "45": 1898, "450": 13872, "451": 36860, "452": 36720, "453": 35261, "454": 35511, "455": 31546, "456": 34781, "457": 34916, "458": 35992, "459": 36022, "46": 3761, "460": 30875, "461": 37381, "462": 37045, "463": 36611, "464": 38888, "465": 33544, "466": 38620, "467": 35400, "468": 37184, "469": 37665, "47": 3706, "470": 29748, "471": 36678, "472": 37401, "473": 37887, "474": 35761, "475": 29156, "476": 33981, "477": 20811, "478": 37664, "479": 35414, "48": 3818, "480": 27018, "481": 34490, "482": 37385, "483": 37932, "484": 37810, "485": 33467, "486": 37202, "487": 37795, "488": 36120, "489": 37900, "49": 3414, "490": 30881, "491": 37676, "492": 38852, "493": 37839, "494": 38249, "495": 30973, "496": 37770, "497": 38143, "498": 37412, "499": 26518, "5": 245, "50": 1096, "500": 1497, "5000": 31830, "501": 36144, "502": 35537, "503": 38071, "504": 36131, "505": 35255, "506": 36647, "507": 38235, "508": 36911, "509": 37046, "51": 4708, "510": 32380, "511": 38900, "512": 35033, "513": 39337, "514": 39335, "515": 36565, "516": 38960, "517": 39356, "518": 33213, "519": 39327, "52": 4429, "520": 31271, "522": 38348, "523": 39864, "524": 38803, "525": 29451, "526": 30359, "528": 38440, "529": 37261, "53": 4540, "530": 30224, "533": 38037, "535": 37020, "536": 39147, "537": 39155, "538": 38425, "54": 4283, "540": 31394, "544": 38944, "545": 36751, "546": 39405, "548": 38714, "549": 36476, "55": 3118, "550": 17953, "551": 38749, "552": 35544, "553": 39252, "554": 38500, "555": 33772, "556": 37305, "557": 38781, "558": 38578, "559": 38012, "56": 4419, "560": 30207, "561": 39345, "562": 36950, "563": 39032, "565": 37402, "568": 40204, "57": 4390, "570": 32976, "571": 38173, "572": 39190, "573": 38992, "574": 39629, "575": 28839, "576": 39617, "577": 36447, "578": 38588, "579": 37534, "58": 4432, "580": 31663, "581": 39263, "582": 38020, "583": 39123, "584": 38601, "585": 34921, "586": 38014, "587": 38878, "588": 38318, "589": 40017, "59": 4156, "590": 33933, "591": 40284, "592": 39642, "593": 39785, "594": 38911, "595": 35305, "596": 39157, "597": 39819, "598": 38097, "599": 33626, "6": 401, "60": 2466, "600": 4697, "6000": 37748, "601": 38613, "602": 36094, "603": 37663, "604": 33287, "605": 34764, "606": 36101, "607": 32774, "608": 36874, "609": 37295, "61": 5606, "610": 33375, "612": 38222, "613": 39669, "614": 40082, "615": 36227, "616": 39352, "617": 39372, "618": 33225, "62": 5379, "620": 32994, "623": 39196, "625": 27786, "626": 37190, "627": 40056, "628": 38075, "629": 39681, "63": 5449, "630": 31181, "635": 38027, "64": 4027, "640": 31419, "641": 39138, "642": 36159, "643": 37853, "644": 36520, "645": 33611, "646": 33075, "647": 36603, "648": 36491, "649": 33787, "65": 3506, "650": 16316, "651": 39060, "652": 38413, "653": 38616, "654": 38138, "655": 35300, "656": 36431, "657": 38530, "658": 36688, "659": 38223, "66": 4280, "660": 31412, "661": 37499, "662": 36577, "663": 39505, "665": 35321, "666": 34364, "6666": 48491, "66666666": 50036, "667": 29312, "668": 37867, "669": 36400, "67": 4111, "670": 34148, "671": 39392, "672": 39259, "673": 38508, "674": 38715, "675": 32103, "676": 39071, "677": 38434, "678": 37628, "679": 38770, "68": 4671, "680": 32036, "681": 38149, "682": 39593, "683": 39062, "684": 37821, "685": 36766, "686": 37289, "687": 37399, "688": 37199, "689": 38349, "69": 4563, "690": 33636, "691": 40572, "692": 39311, "693": 40379, "694": 39688, "695": 34684, "696": 36999, "697": 38719, "698": 38080, "699": 34024, "7": 406, "70": 3083, "700": 5987, "701": 39293, "702": 36521, "703": 37106, "704": 37871, "705": 35278, "706": 34993, "707": 34877, "70710": 49928, "708": 36814, "709": 38139, "71": 5339, "710": 36867, "712": 40944, "713": 40349, "714": 37901, "718": 38590, "72": 4956, "720": 29721, "725": 33741, "727": 39125, "728": 39265, "729": 40125, "73": 5352, "730": 34795, "733": 38765, "736": 39619, "74": 5243, "740": 33686, "745": 35868, "747": 38886, "748": 39373, "75": 2545, "750": 10569, "751": 40670, "752": 39738, "753": 37475, "754": 39382, "755": 36434, "756": 39755, "757": 38127, "758": 37073, "759": 39055, "76": 5067, "760": 31222, "7601": 48876, "762": 38997, "763": 39850, "765": 35632, "76561": 50075, "767": 38504, "768": 37293, "77": 4718, "770": 35061, "771": 40652, "772": 38949, "773": 39094, "774": 39786, "775": 28801, "776": 39402, "777": 33416, "778": 35534, "779": 38759, "78": 5479, "780": 33066, "781": 40149, "782": 40092, "783": 40184, "784": 40729, "785": 37453, "786": 38925, "787": 38444, "789": 39413, "79": 5220, "790": 34504, "792": 39739, "793": 40832, "794": 40528, "795": 36346, "796": 39526, "797": 40065, "798": 40141, "799": 33333, "8": 398, "80": 2940, "800": 3913, "8000": 42412, "801": 39624, "802": 37674, "803": 39440, "804": 37413, "805": 34249, "806": 38717, "807": 38633, "808": 31731, "809": 36621, "81": 6668, "810": 35269, "815": 38828, "82": 6551, "820": 34212, "825": 34715, "83": 6361, "830": 35781, "833": 39134, "84": 6232, "840": 34243, "85": 4531, "850": 19270, "855": 33450, "86": 5334, "860": 34009, "864": 40093, "866": 30205, "87": 5677, "870": 36079, "875": 29271, "877": 27806, "88": 4652, "880": 32954, "882": 40178, "883": 40714, "884": 40903, "885": 37634, "886": 40294, "887": 40793, "888": 22410, "889": 40027, "89": 5046, "893": 40663, "896": 41256, "899": 36681, "9": 466, "90": 3248, "900": 7784, "901": 40197, "905": 38893, "909": 39517, "91": 6468, "910": 36991, "911": 37157, "915": 38405, "916": 40299, "92": 6617, "920": 29099, "925": 34825, "93": 6478, "930": 35493, "94": 6405, "940": 36509, "949": 35862, "95": 4015, "950": 24378, "951": 40464, "952": 39918, "953": 41663, "954": 40893, "956": 41632, "96": 5607, "960": 35154, "968": 41258, "969": 40996, "97": 6750, "970": 35115, "975": 35795, "978": 40583, "98": 5208, "980": 36824, "985": 38848, "986": 40558, "987": 40366, "989": 40391, "99": 2831, "990": 27204, "992": 40235, "993": 41455, "994": 40690, "995": 30739, "996": 39659, "997": 39970, "998": 39101, "999": 16692, "9999": 46847, ":": 35, ":\"": 36856, ":#": 48919, ":'": 45393, ":(": 48329, ":,": 46686, ":-": 36185, ":/": 44408, "://": 640, "::": 38304, "::::": 49710, "::::::::": 46564, ":[": 48554, ":\\": 48347, ":]": 48937, ":{": 49681, ";": 131, ";\"": 42777, ";;": 48640, ";;;;": 50012, ";;;;;;;;": 49909, ";;;;;;;;;;;;": 50072, ";}": 48803, "<": 41552, "</": 49138, "</s>": 2, "<<": 48203, "<?": 50254, "<mask>": 50264, "<pad>": 1, "<s>": 0, "<unk>": 3, "<|endoftext|>": 50260, "=": 5214, "=\"": 40635, "=\"\"": 48893, "=\"#": 49991, "=\"/": 49799, "=#": 49790, "=$": 45946, "='": 47579, "=(": 49487, "=-": 48771, "=-=-": 50019, "=-=-=-=-": 50028, "=-=-=-=-=-=-=-=-": 50024, "=/": 48562, "==": 43292, "===": 47463, "====": 48332, "======": 48613, "========": 48273, "============": 43613, "================": 46945, "================================": 49774, "================================================================": 49936, "=>": 48755, "=[": 49310, "=\\\"": 50003, "=]": 49915, "={": 49248, "=~": 49938, "=~=~": 50189, ">": 15698, ">\"": 49721, ">(": 49925, ">)": 49798, ">,": 48077, ">.": 48691, ">:": 49242, "><": 49007, "></": 49526, ">>": 44226, ">>>": 47457, ">>>>": 48902, ">>>>>>>>": 46844, ">>\\": 50193, ">[": 50025, ">]": 49910, "?": 116, "?!": 17516, "?!\"": 43775, "?\"": 1917, "?\",": 40021, "?\".": 43012, "?'": 6600, "?'\"": 19651, "?)": 16276, "?),": 37398, "?).": 37640, "?,": 33647, "?:": 36538, "??": 28749, "???": 38713, "????": 27282, "?????": 47148, "?????-": 50061, "?????-?????-": 50179, "????????": 36137, "?]": 40862, "?\u00e3\u0122\u012f": 49988, "@": 1039, "@#": 49436, "@#&": 50015, "@@": 49453, "@@@@": 49969, "@@@@@@@@": 49987, "A": 250, "AA": 5596, "AAA": 27979, "AAAA": 45612, "AAAAAAAA": 48983, "AAF": 27500, "AB": 4546, "ABC": 18929, "ABLE": 13732, "AC": 2562, "ACA": 27920, "ACC": 21678, "ACE": 15949, "ACH": 11083, "ACK": 14940, "ACP": 38330, "ACT": 13709, "ACTED": 47541, "ACTION": 43953, "ACY": 39425, "AD": 2606, "ADA": 15779, "ADD": 37705, "ADE": 15197, "ADRA": 47272, "ADS": 29581, "ADVERTISEMENT": 45037, "AE": 16329, "AF": 8573, "AFP": 11528, "AFTA": 39796, "AG": 3450, "AGE": 14426, "AGES": 43398, "AH": 15334, "AI": 15238, "AIDS": 30968, "AIN": 33178, "AIR": 35518, "AK": 7140, "AKING": 16371, "AL": 2118, "ALD": 34791, "ALE": 13812, "ALK": 23284, "ALL": 7981, "ALLY": 32191, "ALS": 19569, "ALSE": 49146, "ALT": 18119, "ALTH": 33086, "AM": 2620, "AMA": 19455, "AMD": 42181, "AME": 30104, "AMES": 29636, "AMI": 17581, "AMP": 20014, "AMS": 31864, "AMY": 46838, "AN": 1889, "ANA": 14629, "ANC": 9363, "ANCE": 15255, "AND": 5945, "ANE": 19621, "ANG": 9298, "ANGE": 27917, "ANI": 18009, "ANK": 10227, "ANN": 15118, "ANS": 6557, "ANT": 11088, "ANY": 13784, "AP": 591, "APD": 44608, "APE": 38851, "APH": 30638, "API": 40104, "APP": 17167, "APS": 31959, "APTER": 47532, "AR": 2747, "ARA": 19142, "ARB": 38118, "ARC": 11969, "ARCH": 42499, "ARD": 11250, "ARDIS": 47508, "ARDS": 38623, "ARE": 7982, "ARGET": 40325, "ARI": 32665, "ARK": 16165, "ARM": 31874, "ARP": 30711, "ARR": 26952, "ARS": 22210, "ART": 11328, "ARY": 10760, "AS": 2336, "ASC": 40230, "ASE": 24199, "ASED": 43241, "ASH": 13246, "ASHINGTON": 8684, "ASON": 31705, "ASS": 17042, "AST": 10388, "ASY": 44509, "AT": 2571, "ATA": 25912, "ATCH": 24321, "ATE": 8625, "ATED": 5161, "ATER": 20106, "ATES": 27704, "ATH": 18267, "ATHER": 31711, "ATING": 18990, "ATION": 6034, "ATIONAL": 23771, "ATIONS": 14939, "ATIVE": 39869, "ATOR": 39261, "ATS": 26063, "ATT": 26107, "ATTLE": 26816, "ATURE": 35576, "ATURES": 46158, "AU": 22983, "AUD": 44741, "AUT": 42575, "AV": 10612, "AW": 10751, "AX": 26624, "AY": 2547, "AZ": 15134, "Aaron": 29934, "Ab": 13112, "Ability": 47685, "About": 21674, "Above": 42599, "Abs": 43610, "Absolutely": 32523, "Abstract": 47638, "Abyss": 49478, "Ac": 26145, "Acc": 36984, "Accept": 47127, "Access": 35505, "Accessory": 49551, "According": 14693, "Account": 43767, "Acknowled": 49003, "Across": 42945, "Act": 26880, "Action": 36082, "ActionCode": 50177, "Activ": 43034, "Active": 42586, "Activity": 47874, "Actor": 40448, "Actually": 36900, "Ad": 9167, "Adam": 24671, "Adams": 36288, "Adapt": 46874, "Adapter": 49617, "Add": 20763, "Added": 47606, "Adding": 45118, "Additional": 8665, "Additionally": 42713, "Address": 46486, "Adds": 9984, "Adjust": 46493, "Admin": 48175, "Administ": 45597, "Adult": 46660, "Adv": 41245, "Advanced": 44694, "Adventure": 47430, "Advertisement": 41187, "Advertisements": 49652, "Af": 15426, "Afee": 35491, "Aff": 41085, "African": 30112, "After": 4993, "Ag": 19897, "Again": 34790, "Against": 41634, "Age": 39006, "Agent": 45443, "Agg": 46498, "Ah": 17986, "Aid": 33263, "Aim": 47451, "Air": 17906, "Ak": 33282, "Al": 7083, "Alabama": 37388, "Alan": 41540, "Albert": 36977, "Ale": 37010, "Alert": 42556, "Alex": 16804, "Alexander": 33409, "Ali": 37358, "Alias": 48542, "Alice": 43714, "Alien": 45680, "All": 3684, "Allah": 45077, "Allen": 32291, "Allow": 47465, "Allows": 49634, "Almost": 32136, "Along": 40066, "Alpha": 35776, "Already": 44307, "Alright": 45636, "Also": 22412, "Alt": 41622, "Altern": 47868, "Alternative": 46759, "Alternatively": 47869, "Although": 13863, "Always": 37478, "Am": 10127, "Amazing": 41710, "Amazon": 25146, "Amb": 36376, "Americ": 46109, "America": 12580, "American": 4310, "Americans": 15085, "Amid": 42332, "Among": 36342, "Amount": 48302, "Amy": 38646, "An": 4688, "Analy": 41640, "Analysis": 43932, "Ancient": 48011, "And": 2409, "Anderson": 41186, "Andre": 19950, "Andrew": 19843, "Android": 42375, "Andy": 32743, "Ang": 25441, "Angel": 37419, "Angelo": 23591, "Anim": 46231, "Animal": 42820, "Animation": 48761, "Ann": 20767, "Anna": 35242, "Anne": 30678, "Anonymous": 47679, "Another": 21518, "Answer": 33683, "Ant": 18348, "Anth": 48511, "Anthony": 26222, "Anti": 40948, "Any": 11913, "Anyone": 25480, "Anything": 32663, "Anyway": 46871, "Ap": 36675, "Apart": 41041, "App": 19186, "AppData": 49679, "Apparently": 40860, "Appearance": 49571, "Appearances": 49647, "Apple": 20770, "Applic": 47997, "Application": 46345, "Applications": 46407, "Apply": 47456, "Apps": 46036, "Apr": 41872, "April": 13949, "Ar": 8138, "Arab": 33054, "Arc": 45018, "Arcade": 48736, "Arch": 37848, "Are": 13755, "Area": 42895, "Aren": 40921, "Arg": 45621, "Args": 49919, "Ari": 30195, "Arizona": 36851, "Ark": 41441, "Arm": 40414, "Armor": 47936, "Army": 41810, "Around": 34623, "Array": 48222, "Arsenal": 31661, "Art": 23295, "Arthur": 28678, "Article": 24970, "Artist": 45862, "As": 1620, "Ash": 29460, "Asia": 20892, "Asian": 36496, "Aside": 45242, "Ask": 33895, "Asked": 46688, "Ass": 26039, "Assad": 15844, "Assembly": 45580, "Asset": 45733, "Assistant": 46184, "Associated": 17044, "Assuming": 46826, "Ast": 39021, "Async": 49636, "At": 3750, "Atl": 47105, "Atlanta": 36974, "Atlantic": 24561, "Att": 28062, "Attach": 49459, "Attack": 45138, "Attempt": 47797, "Attempts": 48189, "Attorney": 41339, "Attribute": 49385, "Attributes": 49791, "Aud": 37779, "Audio": 45646, "Aug": 20415, "August": 20041, "Aust": 42509, "Austin": 38150, "Austral": 46474, "Australia": 25533, "Australian": 31054, "Aut": 37434, "Auth": 44298, "Authent": 48151, "Author": 42779, "Authorities": 29151, "Auto": 40845, "Autom": 39184, "Av": 23389, "Availability": 49054, "Available": 47354, "Average": 46315, "Avg": 48929, "Avoid": 46062, "Aw": 38145, "Awesome": 47058, "Ax": 39884, "Ay": 41585, "Az": 25165, "B": 387, "BA": 3813, "BACK": 40167, "BALL": 22572, "BAT": 41558, "BB": 7405, "BBC": 28713, "BC": 3573, "BD": 18941, "BE": 8827, "BER": 11126, "BF": 21265, "BG": 33887, "BI": 5383, "BIL": 40217, "BILITIES": 45490, "BILITY": 31071, "BILL": 46141, "BIP": 46258, "BIT": 5871, "BL": 7976, "BLE": 30876, "BLIC": 43743, "BM": 13386, "BN": 15048, "BO": 7997, "BOOK": 27614, "BOX": 42763, "BP": 21792, "BR": 7202, "BRE": 37589, "BS": 3297, "BSD": 46540, "BT": 13269, "BTC": 38614, "BU": 19159, "BUG": 48905, "BUR": 10803, "BUS": 22295, "BUT": 44299, "BW": 42150, "BY": 19058, "Ba": 34535, "Baby": 30047, "Back": 19085, "Background": 48277, "Bad": 26954, "Bah": 43296, "Bal": 35917, "Balance": 47537, "Ball": 32983, "Balt": 44084, "Baltimore": 35263, "Ban": 33809, "Band": 36283, "Bang": 36929, "Bank": 13532, "Bar": 14507, "Barn": 41299, "Bas": 40258, "Base": 34164, "Based": 20930, "Basic": 46255, "Basically": 34480, "Bat": 43852, "Batman": 43421, "Battery": 47795, "Battle": 40211, "Bay": 20861, "Be": 9325, "Bear": 40237, "Beast": 45175, "Beat": 5522, "Beaut": 29287, "Bec": 41094, "Because": 10105, "Beck": 41495, "Bed": 44391, "Bee": 40613, "Beer": 45562, "Before": 17206, "Beg": 46915, "Begin": 48290, "Beginning": 46229, "Beh": 47001, "Behind": 43414, "Being": 15952, "Bel": 19877, "Bell": 37040, "Below": 45943, "Ben": 17521, "Bench": 46131, "Benef": 47054, "Benz": 16967, "Ber": 26795, "Bern": 34048, "Bernie": 45434, "Berry": 44747, "Besides": 41107, "Best": 19183, "Bet": 33603, "Beta": 47511, "Better": 35935, "Between": 37257, "Bey": 40401, "Beyond": 36971, "Bi": 37426, "Big": 12583, "Bill": 19993, "Billy": 38056, "Bind": 48703, "Bio": 40790, "Bir": 41651, "Bird": 39376, "Birth": 44728, "Bit": 36918, "Bitcoin": 42817, "Bl": 12654, "Black": 11368, "Blade": 43223, "Blake": 40856, "Ble": 40370, "Block": 38866, "Blocks": 48217, "Blog": 44967, "Blood": 36746, "Bloom": 46794, "Bloomberg": 35450, "Blu": 45058, "Blue": 17858, "Bo": 18935, "Board": 40546, "Bob": 25158, "Body": 41024, "Bomb": 42984, "Bon": 35994, "Bone": 45281, "Bonus": 47368, "Boo": 45599, "Book": 24751, "Books": 38108, "Boost": 43389, "Boot": 46689, "Border": 43620, "Born": 39722, "Boss": 43047, "Boston": 34227, "Bot": 40009, "Both": 16991, "Bott": 46510, "Bottom": 45959, "Bound": 46827, "Bow": 39807, "Box": 26621, "Boy": 28860, "Br": 16366, "Bra": 41413, "Brad": 31632, "Brain": 44549, "Brand": 42452, "Brandon": 40468, "Brave": 46045, "Brazil": 31004, "Bre": 31607, "Break": 39539, "Breaking": 29908, "Brend": 29178, "Brew": 42863, "Brexit": 16636, "Brian": 28915, "Bride": 23641, "Bridge": 34206, "Brien": 9814, "Bright": 40418, "Bring": 34306, "Brit": 43661, "Britain": 29246, "British": 24270, "Bro": 26519, "Broad": 28806, "Bron": 35096, "Brook": 37211, "Brother": 43422, "Brow": 46306, "Brown": 24057, "Browser": 49205, "Bruce": 39146, "Bs": 28720, "Bu": 37602, "Buff": 42021, "Buffer": 49334, "Bug": 46379, "Build": 36590, "Builder": 45200, "Building": 37500, "Built": 46923, "Bul": 40028, "Bull": 36825, "Bur": 30593, "Burn": 33499, "Bus": 30840, "Bush": 43294, "Business": 18562, "But": 1708, "Button": 48053, "Buy": 7598, "Buyable": 50055, "BuyableInstoreAndOnline": 50228, "Buzz": 38301, "By": 2765, "ById": 48941, "Byte": 47447, "Bytes": 48968, "C": 347, "CA": 4054, "CAN": 31448, "CAP": 28494, "CAR": 22965, "CAST": 40549, "CB": 25392, "CBC": 17542, "CBS": 8949, "CC": 3376, "CCC": 29083, "CD": 11579, "CDC": 33194, "CE": 8041, "CENT": 31152, "CEO": 24205, "CEPT": 45383, "CF": 25388, "CG": 40099, "CH": 3764, "CHA": 32812, "CHAPTER": 49855, "CHAR": 29146, "CHAT": 47921, "CHECK": 48692, "CHO": 43144, "CHQ": 43645, "CHR": 34990, "CI": 21701, "CIA": 42791, "CL": 7454, "CLA": 41994, "CLAIM": 33555, "CLASS": 47986, "CLASSIFIED": 49887, "CLE": 21631, "CLOSE": 13898, "CLUD": 48308, "CLUS": 22065, "CM": 18814, "CN": 29990, "CNN": 16256, "CO": 6335, "COL": 18047, "COLOR": 46038, "COM": 10370, "COMPLE": 49048, "CON": 15299, "CONCLUS": 49760, "CONT": 46897, "COR": 39075, "CP": 7496, "CPU": 47378, "CR": 9822, "CRE": 45503, "CRIP": 49101, "CRIPTION": 42908, "CS": 6842, "CSS": 47394, "CT": 7164, "CTV": 20459, "CU": 38260, "CV": 35433, "CVE": 45778, "CW": 36840, "Ca": 38593, "Cache": 48572, "Cal": 15117, "Calif": 25839, "California": 26926, "Call": 20653, "Callback": 49706, "Calling": 45424, "Cam": 28542, "Camera": 46839, "Camp": 31990, "Campaign": 45526, "Can": 10836, "Canada": 14031, "Canadian": 24819, "Cand": 41309, "Cap": 15791, "Capital": 38632, "Capt": 45681, "Captain": 35645, "Capture": 48097, "Car": 9518, "Card": 23818, "Care": 16431, "Carl": 22591, "Cart": 44394, "Carter": 43732, "Cas": 36061, "Case": 38834, "Cash": 32987, "Cass": 40120, "Cast": 28605, "Cat": 34440, "Catal": 44699, "Catalog": 49354, "Category": 46308, "Cath": 44378, "Catholic": 42799, "Cause": 43326, "Cele": 31431, "Cell": 40216, "Cent": 31230, "Center": 25636, "Central": 25674, "Cert": 44229, "Certain": 44915, "Certainly": 32476, "Ch": 4771, "Chain": 32267, "Chair": 31602, "Chall": 41584, "Champ": 43225, "Chan": 44485, "Chance": 35272, "Change": 36657, "Changed": 49108, "Changes": 44669, "Changing": 44818, "Channel": 17305, "Chapter": 45642, "Char": 42379, "Character": 48116, "Characters": 49282, "Charg": 44932, "Charge": 44136, "Charges": 47654, "Charl": 33193, "Charles": 29217, "Charlie": 34320, "Chart": 25136, "Chat": 29665, "Che": 16764, "Check": 26615, "Chel": 47735, "Chelsea": 27725, "Chem": 41302, "Chest": 48351, "Chicago": 21897, "Chicken": 45905, "Chief": 20364, "Child": 39487, "Children": 31008, "China": 8481, "Chinese": 24727, "Chip": 41016, "Cho": 43625, "Choice": 41646, "Choose": 45181, "Chris": 16084, "Christ": 26352, "Christian": 27077, "Christmas": 27298, "Christopher": 41055, "Chuck": 40872, "Church": 43138, "Circ": 43412, "City": 15075, "Civil": 41044, "Cl": 11428, "Cla": 25127, "Claim": 45699, "Clar": 44157, "Clark": 36243, "Class": 21527, "Classic": 44950, "Cle": 39390, "Clean": 40827, "Clear": 18938, "Clearly": 30770, "Click": 22473, "Client": 47952, "Climate": 40466, "Clinton": 36206, "Clock": 45918, "Close": 42841, "Closure": 49090, "Cloud": 14438, "Club": 17875, "Cmd": 49530, "Co": 8739, "Coach": 28343, "Cod": 47436, "Code": 41555, "Coin": 17339, "Col": 18551, "Cola": 16791, "Cold": 38191, "Cole": 38050, "Coll": 37967, "Collect": 44252, "Collection": 48426, "College": 28165, "Collins": 40380, "Color": 44287, "Colorado": 39557, "Columb": 34809, "Column": 47344, "Com": 14721, "Comb": 42606, "Combat": 48170, "Come": 22817, "Coming": 31795, "Comm": 33479, "Command": 46785, "Comment": 45331, "Comments": 45834, "Commerce": 31796, "Commercial": 42851, "Commission": 44503, "Common": 40437, "Commun": 38644, "Community": 36242, "Comp": 24699, "Compan": 49028, "Companies": 39182, "Company": 21960, "Compar": 48080, "Compare": 45448, "Compared": 44891, "Compat": 49697, "Compl": 45312, "Complete": 45038, "Completed": 49324, "Component": 48767, "Computer": 45942, "Con": 9157, "Conclusion": 48984, "Cond": 43597, "Condition": 48156, "Conf": 33295, "Config": 48836, "Configuration": 49602, "Cong": 42337, "Congratulations": 35863, "Congress": 25997, "Conn": 19730, "Connect": 31161, "Connection": 48467, "Connector": 49605, "Connell": 28317, "Connor": 14919, "Cons": 24514, "Conservative": 43381, "Consider": 44311, "Considering": 41562, "Console": 49290, "Const": 35319, "Construct": 48402, "Constructed": 49671, "Construction": 43147, "Consumer": 42909, "Cont": 26412, "Contact": 43354, "Container": 48557, "Content": 45463, "Contents": 49482, "Context": 48522, "Contin": 28883, "Continue": 46982, "Contract": 43218, "Contribut": 47222, "Control": 43405, "Controller": 48321, "Cook": 32963, "Cool": 37739, "Cooldown": 50042, "Cop": 42989, "Copy": 48233, "Copyright": 19538, "Cor": 15228, "Core": 30786, "Corn": 43078, "Corp": 25313, "Correct": 33567, "Correction": 48349, "Cos": 37294, "Cost": 34985, "Could": 35299, "Coun": 45577, "Council": 38625, "Count": 23329, "Counter": 44057, "Country": 36735, "Cour": 43309, "Course": 47719, "Court": 37349, "Courtesy": 25611, "Cover": 45158, "Cow": 38563, "Cr": 29792, "Cra": 47137, "Craft": 43477, "Craig": 39230, "Crash": 46856, "Cre": 40008, "Creat": 42349, "Create": 44758, "Created": 47859, "Creating": 44308, "Credit": 19263, "Credits": 48072, "Crew": 37974, "Crime": 41514, "Crit": 46517, "Critical": 47239, "Critics": 47312, "Cro": 36537, "Cross": 34385, "Cru": 43073, "Crunch": 32105, "Cruz": 41747, "Cry": 32208, "Crypt": 44623, "Crystal": 42904, "Cs": 31229, "Ct": 47413, "Ctrl": 48719, "Cu": 37454, "Cub": 43655, "Cube": 44406, "Cur": 42090, "Current": 42124, "Currently": 35416, "Custom": 36962, "Customer": 44799, "Cut": 40992, "Cy": 25826, "D": 495, "DA": 3134, "DAQ": 3223, "DATA": 48242, "DAY": 2774, "DB": 10842, "DC": 5949, "DCS": 47791, "DD": 27140, "DE": 10089, "DEBUG": 49837, "DEC": 44579, "DEF": 44438, "DEM": 46128, "DEN": 28082, "DEP": 41372, "DER": 28073, "DERR": 49809, "DES": 40429, "DEV": 47233, "DF": 9380, "DH": 38462, "DI": 10063, "DIR": 47992, "DIS": 37056, "DIT": 45509, "DIV": 35437, "DJ": 31050, "DK": 44097, "DL": 26109, "DM": 25652, "DN": 40795, "DNA": 39287, "DO": 19174, "DOC": 46570, "DOM": 45092, "DON": 42737, "DOS": 47198, "DOWN": 39200, "DP": 5174, "DR": 10644, "DS": 5433, "DT": 23858, "DVD": 44861, "DW": 39751, "DX": 40190, "Da": 32259, "Dad": 39253, "Daddy": 36009, "Daily": 26339, "Dallas": 36128, "Dam": 33905, "Damage": 48008, "Damn": 44604, "Dan": 25887, "Daniel": 18322, "Danny": 36525, "Dar": 30951, "Dark": 35268, "Dash": 43653, "Dat": 43703, "Data": 30383, "Database": 49187, "Date": 39525, "Dave": 33857, "David": 8773, "Davis": 36787, "Day": 10781, "Days": 41077, "Db": 42198, "De": 13365, "Dead": 33838, "Deal": 43787, "Dean": 42862, "Dear": 23314, "Death": 34811, "Deb": 33402, "Debug": 49714, "Dec": 15953, "December": 17704, "Decl": 45788, "Decre": 46136, "Deep": 35166, "Def": 17425, "Default": 48398, "Defense": 39049, "Definition": 47926, "Del": 21502, "Delete": 46006, "Delivery": 46583, "DeliveryDate": 50215, "Delta": 38816, "Dem": 24658, "Demand": 40050, "Democratic": 38729, "Democrats": 36345, "Demon": 44542, "Den": 27267, "Denver": 42261, "Dep": 29774, "Department": 42961, "Depending": 44402, "Deploy": 48287, "Depth": 45566, "Depths": 49952, "Der": 34788, "Des": 28324, "Desc": 47066, "Description": 41602, "Design": 34091, "Desk": 43498, "Desktop": 45469, "Despite": 15243, "Dest": 42551, "Destroy": 47966, "Det": 43170, "Detailed": 48275, "Details": 45360, "Detect": 43780, "Detroit": 27007, "Dev": 30504, "Develop": 42627, "Developer": 48129, "Development": 45297, "Device": 47580, "Dex": 46905, "Di": 29038, "Dial": 47574, "Dialog": 48873, "Dialogue": 48201, "Diamond": 43390, "Dick": 41332, "Did": 20328, "Die": 28535, "Diff": 45985, "Different": 44863, "Dig": 42501, "Digital": 30219, "Dim": 45137, "Dir": 47608, "Direct": 33038, "Director": 35789, "Directory": 49226, "Dis": 26402, "Disable": 49392, "Disc": 41615, "Disclaimer": 47305, "Discover": 46207, "Discuss": 48816, "Discussion": 48763, "Disk": 43766, "Disney": 37711, "Dispatch": 34670, "Display": 47254, "Dist": 42390, "Distance": 48625, "District": 37998, "Div": 37165, "Do": 8275, "DoS": 41501, "Doc": 42291, "Doctor": 41152, "Doctors": 42847, "Document": 47088, "Documents": 47722, "Does": 27847, "Dog": 39488, "Dom": 39914, "Domain": 48527, "Domin": 34826, "Don": 6766, "Donald": 19195, "DonaldTrump": 48376, "Done": 45978, "Donnell": 21489, "Dou": 39756, "Double": 42380, "Doug": 37036, "Down": 17853, "Download": 44514, "Downloadha": 50231, "Dr": 14043, "Draft": 44164, "Drag": 45608, "Dragon": 43273, "DragonMagazine": 50235, "Draw": 45941, "Dream": 27124, "Dri": 34002, "Drive": 29279, "Driver": 46022, "Dro": 46755, "Drop": 43542, "Drug": 41533, "Ds": 32634, "Du": 34965, "Dual": 47587, "Dub": 34007, "Due": 28084, "Dun": 41671, "Dur": 38178, "Duration": 49404, "During": 14229, "Dust": 44291, "Dutch": 40877, "Dynamic": 47515, "E": 717, "EA": 14684, "EAR": 27757, "EB": 33124, "EC": 3586, "ECA": 38678, "ECD": 43663, "ECH": 32958, "ECK": 30438, "ECT": 15004, "ECTION": 44583, "ED": 1691, "EDIT": 24788, "EE": 9993, "EED": 39857, "EEE": 47146, "EEEE": 48260, "EEK": 44244, "EEP": 28142, "EF": 22390, "EFF": 28991, "EG": 7170, "EGA": 42373, "EGIN": 39764, "EH": 38832, "EL": 3721, "ELD": 34816, "ELF": 29734, "ELL": 25322, "ELS": 16416, "ELY": 29313, "EM": 5330, "EMA": 26674, "EMBER": 26653, "EMENT": 20944, "EMOTE": 50067, "EMP": 42257, "EMS": 38114, "EN": 2796, "ENA": 28737, "ENC": 29076, "ENCE": 13471, "ENCY": 23451, "END": 9309, "ENDED": 44456, "ENE": 33978, "ENG": 25049, "ENGTH": 46219, "ENN": 22722, "ENS": 12743, "ENSE": 39951, "ENT": 5382, "ENTION": 42417, "ENTS": 29203, "EO": 15127, "EP": 9662, "EPA": 29485, "ER": 2076, "ERA": 32830, "ERAL": 39243, "ERC": 32261, "ERE": 23142, "ERG": 39042, "ERN": 29092, "ERO": 37553, "ERROR": 46734, "ERS": 4322, "ERSON": 27940, "ERT": 18854, "ERY": 22570, "ES": 1723, "ESA": 32416, "ESCO": 42456, "ESE": 40262, "ESH": 34956, "ESPN": 31253, "ESS": 12147, "ESSION": 43400, "EST": 4923, "EStream": 50225, "EStreamFrame": 50241, "ET": 3935, "ETA": 19739, "ETF": 38587, "ETH": 31076, "ETHOD": 40086, "ETS": 18827, "EU": 14707, "EV": 19896, "EVA": 33207, "EW": 15251, "EX": 6725, "EXP": 45102, "EXT": 42680, "EY": 29867, "Each": 20319, "Ear": 45813, "Earlier": 30541, "Early": 35193, "Earn": 32478, "Earth": 34526, "East": 17577, "Eastern": 39229, "Easy": 43361, "Eat": 43800, "Ec": 44220, "Econom": 44494, "Economic": 41376, "Ed": 5404, "Edge": 37054, "Edit": 44337, "Edited": 42045, "Editor": 31611, "Educ": 46104, "Education": 39594, "Edward": 45014, "Effect": 47210, "Effective": 46355, "Effects": 48730, "Egypt": 37552, "Eh": 45435, "Eight": 33173, "Either": 40671, "El": 9682, "Ele": 28888, "Elect": 31824, "Electric": 40906, "Element": 46331, "Elf": 46700, "Elizabeth": 41015, "Ell": 31870, "Els": 48246, "Elsa": 48155, "Else": 48878, "Elsewhere": 48148, "Em": 16750, "Email": 46084, "Emb": 42578, "Emer": 31393, "Emergency": 40638, "Emily": 41004, "Employ": 38031, "Empty": 47819, "En": 16040, "Enable": 48688, "Enabled": 48582, "Enc": 45780, "End": 18547, "Energy": 30189, "Eng": 35180, "Engine": 13929, "EngineDebug": 50258, "Engineers": 47890, "England": 26698, "English": 35007, "Enh": 47852, "Enhanced": 47349, "Enjoy": 44049, "Enlarge": 47094, "Enough": 41844, "Ent": 30495, "Enter": 30078, "Entity": 49448, "Entry": 46640, "Environment": 46291, "Environmental": 45311, "Ep": 39318, "Episode": 46490, "Equ": 28568, "Er": 28012, "Eric": 24375, "Error": 30192, "Es": 15286, "Esc": 42950, "Especially": 34285, "Ess": 38469, "Est": 27602, "Eth": 42301, "Euro": 21941, "Europe": 27000, "European": 17108, "Ev": 25377, "Eva": 46672, "Even": 8170, "Event": 44879, "Events": 43248, "Eventually": 42280, "Ever": 27172, "Every": 7682, "Everybody": 15216, "Everyone": 11243, "Everything": 15173, "Evidence": 46069, "Evil": 46574, "Ex": 9089, "Exactly": 46149, "Example": 48837, "Examples": 48684, "Exc": 42765, "Excellent": 46887, "Except": 45035, "Exception": 48847, "Exec": 46891, "Executive": 36545, "Exit": 46072, "Exp": 39891, "Exper": 45395, "Experience": 44797, "Experts": 44966, "Expl": 43043, "Explore": 47526, "Export": 47671, "Express": 21682, "Ext": 40884, "External": 47380, "Extra": 44923, "Extreme": 43239, "Ey": 43431, "Eye": 29925, "F": 597, "FA": 5944, "FACE": 47031, "FAQ": 48685, "FAULT": 47697, "FB": 22687, "FBI": 34823, "FC": 5268, "FD": 24667, "FE": 10885, "FER": 19296, "FF": 7389, "FFER": 45234, "FFFF": 48979, "FG": 25077, "FH": 43316, "FI": 14071, "FIELD": 19095, "FIG": 46741, "FIL": 46008, "FILE": 19572, "FIN": 25623, "FINE": 49100, "FINEST": 49980, "FIR": 39679, "FIX": 47787, "FK": 41489, "FL": 7613, "FLAG": 46435, "FM": 16523, "FML": 48714, "FN": 38350, "FO": 7942, "FOR": 27201, "FORE": 47431, "FORM": 38036, "FORMATION": 48436, "FOX": 26931, "FP": 9763, "FR": 5499, "FREE": 44789, "FS": 7881, "FT": 11615, "FTWARE": 49425, "FU": 36693, "FUL": 39419, "FUN": 45354, "FW": 18514, "FX": 24119, "FY": 28409, "Fa": 44663, "Fab": 36578, "Fac": 46166, "Face": 34892, "Facebook": 18064, "Fact": 37724, "Factor": 43622, "Factory": 47249, "FactoryReloaded": 50204, "Fail": 48237, "Failure": 45723, "Fair": 33648, "Faith": 43456, "Fake": 38193, "Fal": 35355, "Fall": 31593, "False": 46659, "Family": 27818, "Fan": 41300, "Fans": 36624, "Far": 20680, "Farm": 36587, "Fast": 35515, "Fat": 41959, "Father": 40589, "Favorite": 48236, "Fax": 47588, "Fe": 29037, "Fear": 39231, "Feature": 47702, "Featured": 20877, "Features": 48192, "Feb": 20160, "February": 22458, "Fed": 38186, "Federal": 33509, "Feed": 37464, "Feel": 44044, "Fel": 39611, "Female": 45186, "Fer": 42594, "Fest": 27170, "Few": 41026, "Fi": 9474, "Field": 27780, "Fif": 43875, "Fig": 44105, "Fight": 40520, "Fighting": 43435, "Figure": 40683, "Fil": 36361, "File": 9966, "Filename": 49646, "Files": 14824, "Fill": 46448, "Film": 35163, "Filter": 47625, "Fin": 34027, "Final": 38083, "Finally": 35703, "Financial": 35028, "Find": 38195, "Finding": 38867, "Fine": 45089, "Finish": 47885, "Fire": 17260, "First": 10993, "Firstly": 45567, "Fish": 43643, "Fit": 30124, "Five": 25496, "Fix": 35660, "Fixed": 48176, "Fl": 16197, "Fla": 36150, "Flag": 46191, "Flags": 48167, "Flash": 42748, "Fle": 37044, "Flickr": 44498, "Flight": 41693, "Flo": 45203, "Float": 48766, "Flor": 45344, "Florida": 31614, "Flow": 41779, "Fly": 34896, "Flying": 45499, "Focus": 39536, "Folder": 49262, "Follow": 18622, "Following": 20839, "Font": 46197, "FontSize": 50045, "Food": 29337, "Foot": 43244, "Football": 28206, "Footnote": 49627, "For": 2709, "Force": 36832, "Ford": 36982, "Fore": 34439, "Foreign": 37221, "Forest": 42542, "Forge": 47656, "ForgeModLoader": 50156, "Form": 30039, "Format": 48587, "Former": 12815, "Fort": 23565, "Fortunately": 40926, "Forward": 43057, "Found": 29991, "Four": 22113, "Fourth": 46354, "Fox": 19360, "Fr": 29220, "Fra": 45558, "Frag": 47881, "Fram": 47948, "Frame": 46766, "Frames": 49361, "Frameworks": 49668, "Fran": 31418, "Franc": 38461, "France": 25010, "Frank": 16025, "Fre": 35673, "Fred": 33153, "Free": 18074, "Freedom": 38647, "French": 28586, "Fresh": 32540, "Fri": 36444, "Friday": 19203, "Friend": 40700, "Friends": 36042, "From": 7605, "Front": 35985, "Fs": 34417, "Fu": 43829, "Fuck": 44823, "Fuel": 44920, "Full": 31440, "Fun": 36391, "Function": 47802, "Fund": 13632, "Further": 37666, "Furthermore": 42395, "Future": 37577, "G": 534, "GA": 4164, "GAME": 46761, "GAN": 38416, "GB": 4377, "GBT": 47872, "GC": 11961, "GD": 38863, "GE": 8800, "GEN": 30965, "GER": 31595, "GES": 39790, "GET": 18760, "GF": 27150, "GG": 24592, "GGGG": 49472, "GGGGGGGG": 49901, "GH": 17201, "GHz": 23108, "GI": 21525, "GL": 10020, "GM": 16972, "GMT": 39621, "GN": 17567, "GO": 14740, "GOP": 43070, "GP": 12694, "GPU": 44753, "GR": 11621, "GRE": 41982, "GREEN": 38159, "GROUND": 45604, "GROUP": 48320, "GS": 10729, "GT": 18266, "GU": 37133, "GUI": 48619, "GV": 37838, "GW": 32880, "GY": 21661, "Ga": 32675, "Gab": 39767, "Gal": 32302, "Gall": 42691, "Gallery": 46610, "Gam": 44888, "Game": 20178, "Gameplay": 49796, "Gamer": 48379, "Games": 40656, "Gaming": 45313, "Gar": 31626, "Gary": 33761, "Gas": 34974, "Gate": 37155, "Gay": 43086, "Gaza": 45903, "Gb": 43608, "Ge": 20981, "Gear": 45298, "Gen": 15887, "Gender": 46049, "Gene": 22648, "Gener": 40025, "General": 9344, "Generally": 41175, "Generic": 49144, "Georg": 43272, "George": 25395, "Georgia": 39331, "Ger": 41043, "German": 27709, "Germany": 24596, "Get": 14181, "Getting": 28750, "Getty": 4043, "Gh": 28916, "Ghost": 38856, "Gi": 40405, "Gil": 38981, "Girl": 36134, "Girls": 33722, "Give": 31033, "Given": 18377, "Giving": 39173, "Gl": 16389, "Glass": 44189, "Global": 18811, "Go": 11478, "Goal": 45952, "God": 15724, "Going": 27524, "Gold": 20439, "GoldMagikarp": 50234, "Golden": 31704, "Good": 12350, "Google": 20441, "Gordon": 43226, "Got": 40084, "Gov": 21964, "Govern": 22469, "Government": 28747, "Gr": 15536, "Gra": 42997, "Grab": 44692, "Grad": 44908, "Grade": 43777, "Graham": 42144, "Grand": 27270, "Grant": 41793, "Graph": 45288, "Graphics": 47230, "Gray": 44425, "Gre": 39845, "Great": 19065, "Greek": 43394, "Green": 19247, "Greg": 25302, "Grey": 41164, "Grid": 41831, "Gro": 38033, "Ground": 43416, "Group": 25976, "Growing": 36883, "Gs": 28393, "Gu": 14484, "Guard": 25351, "Guest": 45721, "Guide": 45106, "Gun": 39916, "Guy": 38624, "Gy": 41532, "H": 725, "HA": 6826, "HAEL": 37053, "HAHA": 48524, "HAHAHAHA": 48109, "HAM": 20241, "HB": 31529, "HC": 13459, "HCR": 41022, "HD": 13022, "HE": 17779, "HEAD": 36696, "HER": 21770, "HF": 25894, "HH": 31901, "HHHH": 48049, "HI": 15473, "HK": 24917, "HL": 8064, "HM": 35441, "HO": 30542, "HOME": 47104, "HOU": 25939, "HOW": 44897, "HP": 7331, "HQ": 37912, "HR": 16271, "HS": 6391, "HT": 14469, "HTML": 48085, "HTTP": 49244, "HUD": 45939, "HY": 32288, "Ha": 24017, "Hack": 46251, "Had": 32054, "Hal": 40306, "Half": 39780, "Hall": 31908, "Ham": 30907, "Hamilton": 31382, "Han": 39531, "Hand": 21292, "Handle": 48678, "Handler": 49191, "Happy": 21136, "Har": 17488, "Hard": 31574, "Hardware": 48362, "Harris": 37302, "Harry": 29345, "Hart": 39657, "Has": 35634, "Hash": 45620, "Hat": 45081, "Haunted": 48434, "Have": 17781, "Having": 15852, "Haw": 32152, "Hay": 33203, "He": 894, "Head": 28873, "Header": 49474, "Health": 13716, "Heart": 28285, "Heat": 44644, "Heavy": 42016, "Height": 48674, "Hel": 31680, "Hell": 38980, "Hello": 31414, "Help": 28780, "Helper": 48825, "Hen": 39975, "Henry": 29648, "Her": 13584, "Here": 11773, "Herm": 48126, "Hero": 43483, "Hey": 13368, "Hi": 30086, "Hidden": 43024, "Hide": 46455, "Hig": 47296, "High": 18522, "Higher": 44083, "Hill": 32911, "Hillary": 38655, "His": 9962, "Hispanic": 44272, "Hist": 38657, "History": 38261, "Hit": 40900, "Hmm": 47519, "Ho": 29729, "Hol": 32139, "Hold": 12250, "Holy": 40422, "Hom": 37778, "Home": 19457, "Hon": 35846, "Honest": 47857, "Honestly": 30048, "Hong": 37397, "Hop": 30158, "Hope": 38443, "Hopefully": 19204, "Hor": 39389, "Host": 40534, "Hot": 27735, "Hour": 40215, "Hours": 46061, "House": 18691, "Houston": 30128, "How": 6179, "Howard": 41051, "However": 10462, "Http": 49549, "Hu": 39087, "Hub": 23730, "Hug": 40710, "Huh": 47611, "Hum": 40022, "Human": 33837, "Hun": 38831, "Hundreds": 36062, "Hung": 41416, "Hunt": 45224, "Hunter": 44038, "Hur": 32401, "Hy": 30811, "Hyd": 44537, "Hyp": 47177, "Hyper": 46572, "Hz": 37825, "I": 100, "IA": 2889, "IAL": 11694, "IAN": 10296, "IAS": 43227, "IB": 8863, "IBLE": 32525, "IC": 2371, "ICA": 22556, "ICAL": 24308, "ICAN": 25692, "ICE": 9292, "ICES": 32870, "ICH": 11938, "ICK": 11839, "ICLE": 45544, "ICO": 13701, "ICS": 14864, "ICT": 12894, "ID": 2688, "IDA": 28887, "IDE": 14645, "IDENT": 29877, "IDER": 31915, "IDES": 42635, "IDS": 23870, "IDs": 43452, "IE": 7720, "IED": 42382, "IELD": 38200, "IENCE": 41499, "IENT": 44735, "IER": 35875, "IES": 7536, "IF": 7025, "IFA": 28673, "IFE": 40198, "IFF": 24377, "IFIC": 36497, "IFIED": 36482, "IFT": 32266, "IG": 5969, "IGH": 29878, "IGHT": 8167, "IGHTS": 26686, "IGN": 30596, "II": 11194, "III": 24457, "IJ": 12761, "IK": 20458, "IL": 3063, "ILA": 24570, "ILD": 27391, "ILE": 30354, "ILL": 10259, "ILLE": 35025, "ILS": 31159, "ILY": 24519, "IM": 3755, "IME": 28417, "IN": 2444, "INA": 16712, "INAL": 26306, "INC": 26055, "IND": 13796, "INE": 13974, "INESS": 28275, "INFO": 48050, "ING": 1862, "INGS": 10942, "INGTON": 18396, "INK": 23617, "INO": 30535, "INS": 15102, "INST": 39236, "INT": 17831, "INTER": 46170, "INTON": 43786, "IO": 6454, "ION": 7744, "IONS": 11654, "IOR": 31259, "IP": 3808, "IPP": 33950, "IPS": 33792, "IQ": 30018, "IR": 5216, "IRC": 44160, "IRD": 33853, "IRE": 21126, "IRED": 43044, "IRO": 16790, "IRT": 40835, "IS": 1729, "ISA": 30483, "ISC": 32953, "ISE": 18819, "ISH": 14849, "ISION": 36296, "ISIS": 31525, "ISM": 33881, "ISO": 43535, "ISON": 27511, "ISS": 17588, "ISSION": 41336, "IST": 11595, "ISTER": 33024, "ISTORY": 40699, "IT": 2068, "ITAL": 33069, "ITCH": 17062, "ITE": 12946, "ITED": 33957, "ITH": 27698, "ITIES": 26824, "ITION": 25815, "ITNESS": 46094, "ITS": 27510, "ITT": 23728, "ITY": 8662, "IU": 36452, "IUM": 43145, "IV": 6372, "IVE": 10002, "IVER": 26994, "IVERS": 30530, "IVES": 38120, "IX": 9482, "IZ": 17045, "IZE": 41697, "Ian": 37733, "Ice": 38136, "Icon": 45686, "Id": 28081, "Ide": 42233, "Ident": 46692, "If": 1106, "Ign": 45616, "Il": 13693, "Ill": 24873, "Im": 20470, "Image": 8532, "Images": 22429, "Imagine": 31206, "Imm": 37380, "Imp": 30281, "Impl": 48455, "Import": 41929, "Important": 47187, "Impro": 46101, "Improve": 47302, "Improved": 48313, "In": 1121, "Inc": 34366, "Includes": 48100, "Incre": 41084, "Increase": 48139, "Increased": 46636, "Increases": 48958, "Ind": 15248, "Indeed": 40566, "Independent": 41900, "Index": 45673, "India": 11015, "Indian": 25767, "Indiana": 42875, "Individual": 43174, "Indust": 36926, "Inf": 31288, "Info": 39863, "Information": 38741, "Ing": 41702, "Ingredients": 48539, "Init": 49368, "Initial": 46187, "Initialized": 50026, "Initially": 42052, "Input": 48214, "Ins": 19751, "Insert": 48386, "Inside": 38359, "Insp": 43195, "Inst": 23754, "Install": 48218, "Installation": 49076, "Instance": 49483, "Instant": 47193, "Instead": 23271, "InstoreAndOnline": 50227, "Instruct": 48493, "Int": 22886, "Integ": 44798, "Integer": 49740, "Intel": 33553, "Inter": 26267, "Interest": 44468, "Interested": 46768, "Interestingly": 46375, "Interface": 49136, "Intern": 46652, "Internal": 47666, "International": 29743, "Internet": 40622, "Interstitial": 49946, "Interview": 46893, "Introdu": 47032, "Introduced": 49360, "Introduction": 46576, "Inv": 42782, "Invalid": 49695, "Invest": 19923, "Investigators": 40333, "Iowa": 36160, "Ir": 34547, "Iran": 21336, "Iraq": 37590, "Ire": 48000, "Ireland": 26737, "Irish": 38100, "Iron": 38398, "Ironically": 46805, "Is": 6209, "Isa": 39323, "Islam": 23239, "Islamic": 28444, "Isn": 43041, "Israel": 20517, "Israeli": 31303, "Iss": 43087, "Issue": 47676, "It": 243, "Italian": 39251, "Italy": 37248, "Item": 47599, "ItemImage": 50158, "ItemThumbnailImage": 50209, "ItemTracker": 50251, "Items": 48485, "Iter": 49628, "Iterator": 49981, "Its": 30872, "Iv": 40692, "J": 863, "JA": 27213, "JB": 42802, "JC": 31700, "JD": 26697, "JECT": 33302, "JJ": 40268, "JM": 36801, "JO": 39131, "JOHN": 47499, "JP": 12887, "JR": 38489, "JS": 37337, "JSON": 49437, "JUST": 43845, "JV": 43117, "Ja": 38649, "Jac": 33644, "Jack": 20907, "Jackson": 29951, "Jacob": 41884, "Jake": 39568, "Jam": 39503, "James": 18031, "Jamie": 39633, "Jan": 14273, "Jane": 35903, "January": 19904, "Japan": 21318, "Japanese": 35655, "Jar": 44768, "Jason": 24434, "Java": 32379, "Jay": 27918, "Je": 35805, "Jean": 35689, "Jeff": 19663, "Jen": 31106, "Jenn": 44802, "Jennifer": 37144, "Jer": 25786, "Jere": 47647, "Jeremy": 37185, "Jerry": 39237, "Jes": 42268, "Jess": 44898, "Jessica": 37731, "Jesus": 33877, "Jet": 21608, "Jew": 44948, "Jewish": 34696, "Jews": 44451, "Jim": 24021, "Jimmy": 35693, "Jo": 19842, "Job": 43128, "Joe": 18393, "John": 10567, "Johnny": 39249, "Johnson": 31894, "Join": 41417, "Joined": 49501, "Jon": 27693, "Jonathan": 28257, "Jones": 22681, "Jordan": 34057, "Jose": 33011, "Joseph": 36744, "Josh": 32879, "Joshua": 36706, "Journal": 12302, "Joy": 37252, "Jr": 40774, "Js": 44962, "Ju": 27324, "Jud": 36728, "Judge": 40145, "Jul": 22403, "July": 13882, "Jump": 45958, "Jun": 31036, "June": 11983, "Just": 6785, "Justice": 29890, "Justin": 29466, "K": 530, "KA": 14559, "KB": 36640, "KC": 32428, "KE": 6961, "KEN": 41138, "KER": 43096, "KEY": 33754, "KI": 38447, "KING": 22889, "KK": 26228, "KN": 29875, "KNOWN": 47300, "KO": 21738, "KR": 13797, "KS": 18307, "KT": 33893, "KY": 11490, "Ka": 34118, "Kal": 32604, "Kansas": 38959, "Kar": 28759, "Karl": 43397, "Kat": 27029, "Kate": 34079, "Kay": 28421, "Ke": 19226, "Keefe": 35442, "Keep": 28407, "Keeping": 37840, "Keith": 39250, "Kelly": 34313, "Ken": 28524, "Kenn": 39361, "Kent": 32057, "Kevin": 21910, "Key": 28152, "Keys": 44534, "Kh": 30408, "Kick": 44545, "Kid": 42303, "Kids": 32180, "Kill": 41494, "Kim": 18806, "Kin": 42638, "Kind": 39126, "King": 21644, "Kings": 33481, "Kit": 29233, "Kn": 30707, "Knight": 44275, "Know": 38912, "Knowing": 40170, "Known": 47186, "Ko": 42362, "Krist": 39100, "Ku": 43158, "Ky": 25301, "Kyle": 37468, "L": 574, "LA": 8272, "LAB": 44435, "LAN": 20606, "LAND": 12204, "LB": 29920, "LC": 6447, "LCS": 34311, "LD": 18048, "LE": 3850, "LEASE": 48809, "LECT": 42120, "LED": 34482, "LER": 38792, "LES": 26896, "LESS": 43023, "LET": 24258, "LEY": 17945, "LG": 38820, "LGBT": 35021, "LI": 27049, "LIB": 46690, "LIN": 13748, "LINE": 28302, "LIST": 42634, "LL": 6006, "LLOW": 19876, "LM": 21672, "LO": 19787, "LOAD": 27822, "LOC": 45002, "LOCK": 45268, "LOD": 48707, "LOG": 45403, "LOS": 14502, "LP": 21992, "LR": 33919, "LS": 10463, "LT": 30395, "LU": 39826, "LV": 19996, "LY": 14079, "La": 10766, "Lab": 30906, "Label": 47895, "Labor": 43222, "Labour": 38664, "Lady": 35425, "Lago": 26040, "Lair": 48949, "Lake": 33309, "Land": 26902, "Language": 46969, "Large": 39012, "Larry": 38544, "Las": 23453, "Last": 10285, "Lastly": 47849, "Lat": 41933, "Late": 37800, "Later": 42609, "Latest": 45409, "Latin": 44348, "Laughs": 39410, "Laun": 47216, "Launch": 47269, "Laura": 40330, "Law": 22532, "Lay": 42510, "Layer": 48159, "Layout": 49415, "Le": 10350, "Lead": 32258, "Leader": 38660, "League": 17608, "Leaks": 43352, "Lean": 19242, "Lear": 47984, "Learn": 40103, "Learning": 42489, "Leary": 26448, "Leave": 39430, "Led": 40794, "Lee": 24403, "Left": 39961, "Leg": 32102, "Legal": 43408, "Legend": 46530, "Legendary": 46272, "Len": 45280, "Length": 48739, "Lenin": 47458, "Lens": 42605, "Leod": 24093, "Leon": 34792, "Les": 35057, "Less": 38294, "Let": 7939, "Letter": 44357, "Lev": 41157, "Level": 38809, "Lew": 43949, "Lewis": 32828, "Lex": 43551, "Li": 41198, "Lib": 37688, "Liber": 38107, "Liberal": 44785, "Library": 44855, "Lic": 47316, "License": 48407, "Lie": 45743, "Life": 12116, "Light": 31091, "Like": 13721, "Likewise": 47498, "Lim": 44222, "Limit": 47593, "Limited": 46732, "Lin": 40253, "Lind": 38429, "Line": 18997, "Link": 17860, "LinkedIn": 48005, "Links": 45603, "Linux": 45768, "Liquid": 46769, "Lisa": 39931, "List": 36583, "Listen": 32917, "Listener": 48887, "Liter": 43589, "Little": 23675, "Live": 16549, "Liverpool": 30760, "Living": 38043, "Lo": 25419, "Load": 47167, "Loader": 49621, "Loading": 46691, "Loc": 45062, "Local": 24476, "Located": 47024, "Location": 46571, "Lock": 37668, "Log": 23345, "Login": 43890, "London": 23122, "Long": 21001, "Look": 15833, "Looking": 17629, "Looks": 43567, "Loop": 47736, "Lord": 37565, "Los": 24485, "Lost": 40265, "Lot": 43856, "Lots": 41083, "Lou": 36076, "Louis": 29923, "Love": 16587, "Low": 32758, "Lower": 44620, "Lt": 45105, "Lu": 25370, "Lua": 48073, "Luc": 20793, "Luck": 45010, "Luckily": 42498, "Luke": 34899, "Lv": 46771, "Ly": 38683, "Lyn": 34052, "M": 448, "MA": 5273, "MAC": 41458, "MAG": 41543, "MAL": 43602, "MAN": 11350, "MAP": 43861, "MAR": 36659, "MAS": 32804, "MAT": 41229, "MAX": 30187, "MB": 8651, "MC": 6018, "MD": 12550, "ME": 6570, "MED": 32653, "MEN": 42717, "MENT": 12613, "MENTS": 37962, "MER": 26011, "MET": 43543, "METHOD": 49767, "MF": 41583, "MG": 21963, "MH": 38092, "MHz": 38333, "MI": 7539, "MIC": 45717, "MIN": 24765, "MIT": 36548, "MJ": 41062, "MK": 24632, "ML": 10537, "MM": 16261, "MN": 35306, "MO": 8756, "MOD": 45997, "MODE": 49523, "MON": 20911, "MORE": 38543, "MP": 7629, "MQ": 44342, "MR": 12642, "MRI": 44903, "MS": 6222, "MSN": 48508, "MT": 11674, "MU": 31502, "MW": 19454, "MX": 39810, "MY": 25518, "Ma": 25447, "Mac": 17049, "Mach": 45971, "Machine": 46100, "Mad": 21067, "Made": 29709, "Madison": 34570, "Mag": 25117, "Magazine": 47391, "Magic": 35877, "Magikarp": 49879, "Magn": 43600, "Mah": 28681, "Mail": 23969, "Main": 31359, "Major": 37038, "Make": 18114, "Maker": 45111, "Making": 31845, "Mal": 18764, "Male": 45831, "Malley": 31880, "Man": 6407, "Management": 43266, "Manager": 44854, "Manchester": 20983, "Mand": 37136, "Mania": 20991, "Manufact": 42553, "Many": 10787, "Map": 41151, "Maps": 48006, "Mar": 10169, "Marc": 28987, "March": 11770, "Marco": 33441, "Marcus": 23952, "Marg": 40420, "Marginal": 49039, "Maria": 38517, "Marie": 30557, "Mario": 36369, "Mark": 10006, "Market": 14773, "Mars": 41521, "Marsh": 40825, "Mart": 13012, "Martin": 26690, "Marvel": 40302, "Marx": 44849, "Mary": 24877, "Mas": 36953, "Mask": 47661, "Mass": 20999, "Master": 32187, "Mat": 30121, "Match": 42633, "Material": 47180, "Materials": 48495, "Math": 44853, "Matrix": 47360, "Matt": 19860, "Matthew": 33667, "Max": 19854, "Maximum": 48089, "May": 10004, "Maybe": 14541, "Mayor": 36652, "Mbps": 36030, "Mc": 13564, "McC": 37730, "Me": 5096, "Meanwhile": 38488, "Measure": 47715, "Meat": 47298, "Mech": 46063, "Med": 21243, "Media": 18801, "Medic": 39096, "Medical": 42024, "Medium": 46243, "Meet": 30682, "Meg": 40555, "Mega": 46717, "Mel": 20201, "Mem": 35038, "Member": 45899, "Members": 31339, "Memory": 47184, "Men": 17762, "Menu": 48301, "Mer": 24291, "Merc": 43965, "Merit": 48240, "Mesh": 47775, "Mess": 40169, "Message": 42394, "Met": 25869, "Meta": 48454, "Metal": 44791, "Method": 47967, "Methods": 49111, "Metro": 36310, "Mex": 35695, "Mexico": 15780, "Mi": 39168, "Miami": 26048, "Mic": 31371, "Mich": 40648, "Michael": 14009, "Michelle": 38268, "Michigan": 34757, "Micro": 39599, "Microsoft": 35460, "Mid": 30238, "Middle": 39175, "Mike": 15827, "Mil": 28151, "Military": 43441, "Mill": 26377, "Miller": 34534, "Min": 20086, "Mind": 34875, "Mine": 38540, "Minecraft": 47950, "Mini": 44824, "Minimum": 47940, "Minnesota": 40080, "Minor": 47246, "Mir": 32686, "Mis": 44089, "Miss": 22885, "Missing": 45104, "Mission": 39928, "Mist": 45545, "Mit": 39340, "Mix": 45628, "Mo": 17357, "Mob": 44578, "Mobil": 29077, "Mobile": 12271, "Mod": 30597, "ModLoader": 50089, "Mode": 47062, "Model": 45149, "Modern": 39631, "Mods": 48839, "Module": 48720, "Moh": 29880, "Mom": 29390, "Mon": 17312, "Monday": 24152, "Money": 25256, "Monitor": 45015, "Monster": 43818, "Mont": 24007, "Month": 43299, "Moon": 32452, "Moore": 34787, "Mor": 30019, "More": 9690, "Moreover": 42850, "Morgan": 40102, "Morning": 23736, "Mos": 42954, "Moscow": 41384, "Most": 2895, "Mot": 41676, "Mother": 34266, "Motion": 44088, "Motor": 39482, "Mount": 42036, "Mouse": 48394, "Move": 41389, "Movie": 42963, "Moving": 41780, "Mp": 46279, "MpServer": 50180, "Mr": 10980, "Mrs": 36176, "Ms": 13123, "Msg": 49680, "Mu": 38448, "Much": 34443, "Mult": 45287, "Multi": 46064, "Multiple": 43253, "Mur": 32405, "Murray": 42463, "Mus": 35136, "Music": 30591, "Muslim": 19952, "Muslims": 40658, "Must": 41033, "Mut": 43440, "My": 2387, "Myth": 48162, "N": 487, "NA": 4444, "NAME": 48307, "NAS": 3399, "NASA": 34665, "NAT": 28693, "NB": 20485, "NBA": 16178, "NBC": 19542, "NC": 6905, "ND": 13457, "NE": 9009, "NECT": 42849, "NER": 20196, "NES": 8552, "NESS": 41422, "NET": 13548, "NEW": 5341, "NEWS": 27359, "NEY": 17251, "NF": 25356, "NFL": 12048, "NG": 5054, "NH": 28812, "NI": 17640, "NING": 19990, "NJ": 25471, "NK": 39933, "NL": 27027, "NM": 31156, "NN": 20057, "NO": 13449, "NOR": 25565, "NOT": 37049, "NOTE": 46599, "NOW": 42218, "NP": 10949, "NPR": 39673, "NR": 17085, "NRS": 47861, "NS": 6949, "NSA": 42219, "NT": 16966, "NULL": 49728, "NUM": 46758, "NV": 31668, "NVIDIA": 48701, "NW": 24430, "NY": 9873, "NYSE": 2554, "NZ": 28160, "Na": 30612, "Name": 31723, "Names": 47995, "Nap": 37549, "Nar": 45787, "Narr": 48683, "Nat": 40676, "Nation": 32873, "National": 18285, "Native": 45339, "Natural": 42968, "Naturally": 45827, "Nature": 43984, "Nav": 42051, "Naz": 46016, "Nazi": 29513, "Nazis": 33171, "Ne": 14563, "Neal": 28138, "Near": 46034, "Nearly": 35346, "Need": 40181, "Neg": 37128, "Neigh": 43942, "Neil": 19992, "Neill": 12017, "Neither": 39254, "Net": 15721, "NetMessage": 50157, "Netflix": 29675, "Network": 40283, "Nev": 35881, "Never": 22491, "Nevertheless": 43872, "New": 4030, "News": 5532, "Newsletter": 48928, "Next": 19192, "Ni": 37335, "Nic": 31988, "Nice": 41541, "Nich": 41784, "Nick": 25602, "Night": 31765, "Nik": 38334, "Nin": 42047, "Nine": 37071, "Nintendo": 44689, "Nit": 46790, "Nitrome": 50070, "No": 3084, "Nob": 41597, "Nobody": 18975, "Node": 48271, "Non": 33239, "None": 29802, "Nonetheless": 46709, "Nor": 29723, "Norm": 46333, "Normal": 45647, "Normally": 40113, "North": 11073, "Northern": 37982, "Not": 7199, "Notable": 48667, "Note": 27728, "Notes": 44691, "Nothing": 19847, "Notice": 47077, "Nov": 18187, "November": 21206, "Now": 5975, "Ns": 40737, "Null": 49302, "Num": 48184, "Number": 43623, "Numbers": 47395, "Nusra": 42935, "Nut": 43977, "O": 673, "OA": 16024, "OAD": 43021, "OB": 7912, "OC": 4571, "OCK": 13181, "OD": 7111, "ODE": 38023, "ODUCT": 46162, "ODY": 37588, "OE": 29834, "OF": 21600, "OFF": 32794, "OG": 10207, "OGR": 41716, "OH": 11979, "OHN": 48034, "OIL": 41382, "OK": 9335, "OL": 3384, "OLD": 20245, "OLOG": 38054, "OLOGY": 41819, "OM": 3765, "OME": 25073, "ON": 2191, "OND": 7054, "ONDON": 4524, "ONE": 16646, "ONES": 36145, "ONEY": 38247, "ONG": 9672, "ONS": 28663, "ONSORED": 48266, "ONT": 34874, "ONY": 32205, "OO": 9332, "OOD": 26462, "OOK": 23775, "OOL": 46048, "OOOO": 47123, "OOOOOOOO": 48168, "OP": 5733, "OPA": 43013, "OPE": 23075, "OPER": 35918, "OPLE": 48032, "OPS": 33641, "OR": 3411, "ORD": 11200, "ORE": 7563, "ORED": 46818, "ORGE": 38288, "ORK": 43025, "ORN": 29242, "ORPG": 48102, "ORS": 18347, "ORT": 12154, "ORTS": 25861, "ORY": 26116, "OS": 3196, "OSE": 7949, "OSED": 41743, "OSH": 38336, "OSP": 41713, "OSS": 17549, "OST": 13556, "OT": 3293, "OTA": 24881, "OTAL": 47778, "OTE": 28002, "OTH": 34072, "OTHER": 30991, "OTO": 33770, "OTOS": 24918, "OTS": 34250, "OTT": 24840, "OTUS": 24678, "OU": 5061, "OUGH": 18075, "OULD": 33835, "OUN": 30696, "OUND": 18103, "OUNT": 34494, "OUP": 44548, "OUR": 14257, "OURCE": 9403, "OUS": 18024, "OUT": 29891, "OV": 13565, "OVA": 44320, "OVER": 36933, "OW": 4581, "OWER": 37420, "OWN": 14356, "OWS": 36558, "OX": 37704, "OY": 20664, "Oak": 36043, "Ob": 24567, "Obama": 33382, "Obj": 49062, "Object": 46674, "Obs": 40089, "Obviously": 12455, "Occ": 45549, "Occup": 46066, "Ocean": 41496, "Oct": 19144, "October": 20144, "Of": 10643, "Off": 22985, "Offic": 43188, "Office": 37991, "Officers": 34911, "Official": 34111, "Officials": 35779, "Offline": 49238, "Offset": 48772, "Often": 39972, "Oh": 7516, "Ohio": 26603, "Oil": 32397, "Ok": 26752, "Okay": 33082, "Ol": 33453, "Old": 26605, "On": 4148, "Once": 11475, "One": 3762, "Online": 19449, "Only": 19933, "Ont": 37618, "Op": 13926, "Open": 25266, "Opening": 44662, "Oper": 20420, "Operation": 35360, "Opp": 39892, "Ops": 36421, "Opt": 36542, "Option": 46550, "Optional": 48859, "Options": 47261, "Or": 11094, "Oracle": 47003, "Orange": 37264, "Ord": 43670, "Order": 45613, "Orderable": 50213, "Ore": 41635, "Oregon": 35287, "Org": 46532, "Organ": 37034, "Orig": 47837, "Origin": 47651, "Original": 42949, "Originally": 44622, "Os": 11078, "Other": 24989, "Others": 43813, "Otherwise": 42815, "Ott": 41691, "Our": 2522, "Out": 14944, "Output": 48293, "Outside": 43840, "Over": 10777, "Overall": 28965, "Override": 49116, "Overview": 46989, "Own": 40839, "Owner": 46182, "Ox": 40295, "P": 510, "PA": 3439, "PAC": 35765, "PAR": 14280, "PART": 41623, "PASS": 47047, "PATH": 48468, "PB": 37395, "PC": 4794, "PD": 6153, "PDATE": 50006, "PDATED": 44964, "PDF": 38506, "PE": 16035, "PER": 21260, "PET": 40011, "PF": 16088, "PG": 8332, "PH": 7561, "PHOTOS": 42340, "PI": 11337, "PIN": 46558, "PK": 35697, "PL": 7205, "PLA": 43362, "PLAY": 43784, "PLE": 26050, "PLIC": 44597, "PLIED": 46662, "PM": 5683, "PN": 21824, "PO": 14465, "POL": 38807, "POR": 35473, "PORT": 20275, "POS": 42740, "POSE": 47500, "POST": 47060, "PP": 5756, "PR": 4454, "PRE": 43869, "PRES": 29679, "PRESS": 27177, "PRO": 32863, "PROV": 35654, "PS": 3888, "PT": 10311, "PU": 16821, "PUT": 42030, "Pa": 28058, "Pac": 35625, "Pacific": 8145, "Pack": 31331, "Package": 48680, "Pad": 28874, "Page": 21823, "Pages": 47143, "Pain": 43889, "Pak": 35635, "Pakistan": 20700, "Pal": 23166, "Palest": 47695, "Palestinian": 28875, "Pan": 34263, "Pand": 45741, "Panel": 46968, "Paper": 44986, "Par": 22011, "Param": 48348, "Parameter": 49752, "Parameters": 49725, "Parent": 46102, "Parents": 35835, "Paris": 32826, "Park": 25130, "Parser": 49707, "Part": 4741, "Particip": 44759, "Parts": 45305, "Party": 38210, "Pass": 20340, "Password": 44917, "Past": 42282, "Pat": 18276, "Patch": 45168, "Path": 42119, "Patrick": 32811, "Pattern": 48689, "Paul": 12083, "Pause": 48532, "Pay": 24522, "Pe": 23029, "Peace": 39370, "Pear": 42933, "Ped": 39690, "Pen": 32884, "Penn": 35104, "People": 4763, "Per": 20823, "Percent": 48497, "Perfect": 42370, "Performance": 44002, "Perhaps": 32458, "Pers": 43020, "Person": 41761, "Personal": 43854, "Personally": 40026, "Pet": 28970, "Peter": 22611, "Pg": 47396, "Ph": 17297, "Phase": 45657, "Phil": 25531, "Philadelphia": 41524, "Philipp": 35196, "Phill": 26938, "Phoenix": 41932, "Phone": 40980, "Phones": 48083, "Phot": 41612, "Photo": 2411, "Photos": 38580, "Phys": 43827, "Physical": 46577, "Pi": 42293, "Pic": 16185, "Pick": 40285, "Pict": 40928, "Picture": 7888, "Pie": 40941, "Pierre": 27618, "Pin": 44670, "Ping": 47709, "Pink": 42720, "Pinterest": 47081, "Pir": 42483, "Pitt": 37164, "Pixel": 46548, "Pl": 16213, "Place": 41863, "Plan": 35351, "Planet": 43232, "Platform": 46960, "Play": 20780, "Player": 35605, "Players": 42077, "Playing": 37647, "Please": 6715, "Plex": 46169, "Plot": 48812, "Plug": 48022, "Plugin": 49577, "Plus": 27576, "Po": 26170, "Pocket": 47964, "Pod": 29138, "Point": 20416, "Points": 46340, "Pokemon": 46145, "Pok\u00c3\u00a9": 49724, "Pok\u00c3\u00a9mon": 46661, "Pol": 32400, "Police": 9497, "Policy": 46159, "Polit": 39564, "Political": 39548, "Politics": 37090, "Poll": 42845, "Poly": 44910, "Pont": 26632, "Pool": 27262, "Poor": 43094, "Pop": 30255, "Pope": 36017, "Population": 48653, "Port": 22117, "Portland": 42315, "Pos": 42848, "Position": 46884, "Post": 21585, "Posted": 31195, "Posts": 45916, "Pot": 35516, "Power": 20645, "Pr": 21077, "Pract": 46029, "Pre": 22763, "Pred": 45408, "Pref": 48670, "Prem": 35132, "Premium": 46025, "Prep": 44165, "Pres": 28917, "Present": 45195, "President": 6517, "Press": 20142, "Pretty": 37396, "Prev": 48521, "Preview": 48713, "Previous": 44716, "Previously": 45095, "Pri": 38817, "Price": 36677, "Prim": 44015, "Primary": 46604, "Prime": 25973, "Prin": 42544, "Princ": 42686, "Prince": 29161, "Print": 43945, "Prior": 41542, "Priv": 47494, "Privacy": 46591, "Private": 38076, "Pro": 10653, "Probably": 35882, "Problem": 47481, "Process": 46202, "Produ": 41999, "Product": 41257, "Production": 43306, "Products": 47559, "Prof": 42133, "Professional": 45520, "Professor": 44385, "Profile": 47555, "Program": 44426, "Progress": 43881, "Project": 33347, "Prom": 35396, "Proof": 46484, "Prop": 41895, "Property": 44720, "Pros": 45828, "Prosecut": 48410, "Prosecutors": 44693, "Prot": 41377, "Protect": 41357, "Prov": 35746, "Provider": 48903, "Proxy": 49115, "Ps": 13438, "Psy": 48773, "PsyNetMessage": 50160, "Psych": 44353, "Ptr": 49835, "Pub": 44110, "Public": 22649, "Published": 29642, "Publisher": 47871, "Pull": 45233, "Pur": 39740, "Purchase": 47933, "Pure": 44214, "Push": 46971, "Put": 35123, "Putin": 35891, "Putting": 43595, "Py": 42734, "Python": 48659, "Q": 1864, "QB": 30119, "QL": 42111, "QU": 15513, "QUEST": 46392, "QUI": 48055, "QUIRE": 47091, "Qaeda": 25697, "Qaida": 28448, "Qu": 12444, "Qual": 42170, "Quality": 45065, "Quant": 44572, "Quantity": 49457, "Que": 31178, "Queen": 21446, "Query": 48382, "Quest": 41862, "Question": 45641, "Questions": 46865, "Queue": 49382, "Quick": 42323, "Quite": 41738, "Quote": 48065, "Quotes": 48862, "R": 500, "RA": 4396, "RAFT": 43250, "RAG": 40456, "RAL": 22881, "RAM": 19496, "RANT": 43893, "RAW": 36880, "RAY": 37327, "RB": 26770, "RC": 5199, "RD": 34158, "RE": 4629, "READ": 29825, "REAM": 28057, "REC": 40698, "RECT": 42260, "RED": 36015, "REDACTED": 48686, "REE": 30009, "REF": 45935, "REG": 32239, "REL": 39444, "RELATED": 38815, "REM": 41548, "REP": 44722, "RES": 32030, "RESULTS": 49043, "RET": 36995, "RF": 30455, "RFC": 49073, "RG": 41626, "RGB": 46647, "RH": 41188, "RI": 6934, "RIC": 36570, "RIP": 29987, "RIPT": 38612, "RL": 17868, "RM": 28580, "RN": 39151, "RNA": 43612, "RO": 8727, "ROM": 41944, "RON": 37043, "ROR": 45055, "RP": 15901, "RPG": 47766, "RR": 25733, "RS": 8105, "RT": 13963, "RW": 43424, "RY": 16802, "Ra": 27625, "Race": 40246, "Rachel": 41415, "Rad": 28243, "Radio": 27759, "Rah": 33908, "Raid": 44356, "Rail": 36458, "Rain": 23074, "Ram": 32361, "Rand": 38789, "Random": 45134, "Range": 43430, "Rank": 46052, "Ranked": 48807, "Rap": 39310, "Rare": 46543, "Rat": 40855, "Rate": 45630, "Rated": 47131, "Rather": 35716, "Rating": 44781, "Raven": 43077, "Raw": 40039, "Ray": 24185, "Re": 9064, "Read": 25439, "Reader": 46347, "Reading": 43952, "Ready": 38458, "Real": 17105, "Really": 30327, "Reason": 48147, "Reb": 41008, "Rec": 21109, "Recent": 39936, "Recently": 38386, "Recipe": 48750, "Recomm": 49711, "Recommend": 48758, "Recommended": 48641, "Record": 33526, "Rect": 48987, "Red": 15638, "Redd": 48279, "Reddit": 47758, "Redditor": 49841, "Ref": 31842, "Refer": 48310, "Reference": 45963, "References": 49379, "Reg": 23007, "Regarding": 44401, "Regardless": 38861, "Region": 43575, "Register": 44539, "Registered": 46864, "Registration": 45366, "Regular": 46309, "Reilly": 16626, "Rel": 29806, "Related": 22816, "Relations": 45651, "Release": 45036, "Released": 47256, "Reloaded": 49718, "Rem": 31157, "Remember": 28669, "Remote": 46866, "Remove": 47583, "Removed": 49699, "Ren": 34837, "Render": 48440, "Rep": 22026, "Repe": 34053, "Repeat": 45764, "Repl": 47493, "Reply": 49084, "Report": 20697, "Reporting": 1670, "Reports": 32339, "Represent": 28588, "Republic": 35663, "Republican": 33364, "Republicans": 39044, "Requ": 47090, "Request": 45589, "Required": 49068, "Requirements": 49269, "Requires": 49134, "Res": 20028, "Research": 27004, "Researchers": 40450, "Residents": 35129, "Resource": 47279, "Resources": 47057, "Resp": 44036, "Response": 47806, "Rest": 31921, "Result": 48136, "Results": 41981, "Ret": 27814, "Return": 42555, "Returns": 48826, "Reuters": 1251, "Rev": 38494, "Review": 32773, "Reviewed": 49408, "Reviewer": 48922, "Revolution": 45983, "Rew": 46176, "Reward": 48517, "Rex": 39712, "Rh": 38067, "Rich": 28295, "Richard": 27845, "Rick": 30250, "Right": 13984, "Ring": 41957, "River": 32960, "Ro": 27110, "Road": 32009, "Roaming": 49114, "Rob": 18776, "Rober": 46496, "Robert": 25244, "Roberts": 42178, "Robin": 43185, "Rock": 10448, "Rocket": 42913, "Rod": 30055, "Rog": 43517, "Roger": 39130, "Rogue": 44495, "Role": 47613, "Roll": 35436, "Rom": 38184, "Roman": 38962, "Romney": 47550, "Ron": 27674, "Room": 41136, "Root": 46606, "Ros": 36354, "Rose": 24940, "Ross": 35978, "Rot": 44497, "Round": 41061, "Route": 43929, "Row": 43277, "Roy": 20512, "Royal": 30394, "Rs": 18591, "Ru": 36439, "Rub": 40821, "Ruby": 46725, "Rule": 47181, "Rules": 46916, "Rum": 40277, "Run": 33177, "Runner": 45163, "Running": 42900, "Runtime": 49779, "Rus": 44867, "Rush": 45237, "Russ": 42931, "Russell": 40575, "Russia": 15685, "Russian": 14836, "Rust": 46541, "Ry": 43031, "Ryan": 23287, "S": 104, "SA": 3603, "SAM": 45159, "SAN": 9300, "SAY": 46937, "SB": 12380, "SC": 3632, "SCP": 48091, "SD": 6243, "SE": 3388, "SEA": 40111, "SEC": 21536, "SEE": 32739, "SELECT": 49179, "SER": 41877, "SET": 45099, "SF": 23646, "SG": 33020, "SH": 10237, "SHA": 45004, "SHARE": 44624, "SHIP": 41201, "SI": 6850, "SIGN": 42101, "SIM": 37266, "SIZE": 49340, "SK": 17342, "SL": 11160, "SM": 15153, "SN": 12436, "SO": 14587, "SON": 14452, "SOURCE": 48560, "SP": 4186, "SPA": 35983, "SPEC": 45352, "SPONSORED": 49228, "SQL": 46608, "SR": 17973, "SS": 8108, "SSL": 46535, "ST": 4014, "STAR": 39602, "STAT": 40106, "STATE": 45380, "STD": 47136, "STDOUT": 50054, "STE": 40340, "STEM": 43896, "STEP": 45745, "STER": 32866, "STON": 12917, "STR": 30549, "STRUCT": 45302, "SU": 10466, "SUP": 45531, "SW": 11871, "SY": 21134, "Sa": 33457, "Sab": 35792, "Sac": 39429, "Sad": 37188, "Sadly": 38778, "Safe": 32356, "Safety": 40592, "Sah": 44848, "Saharan": 27692, "Said": 47117, "Saint": 41742, "Sal": 18111, "Sales": 28188, "Salt": 44095, "Sam": 21169, "Same": 42271, "Sample": 47241, "Samsung": 35932, "San": 16033, "Sand": 40213, "Sanders": 45388, "Santa": 28563, "Sarah": 33671, "Sat": 29918, "Saturday": 17643, "Saudi": 28933, "Sav": 36138, "Save": 30940, "Sax": 44657, "Say": 34673, "Sc": 12645, "Scale": 43737, "Scan": 42450, "Scar": 42924, "Scene": 47330, "Sch": 18077, "Sche": 42264, "School": 26751, "Science": 36260, "Scient": 46300, "Scientists": 40816, "Scope": 45190, "Score": 36088, "Scot": 42565, "Scotland": 37022, "Scott": 22041, "Screen": 42102, "Screenshot": 45296, "Script": 30276, "Scroll": 45133, "Se": 14696, "Sea": 37697, "Sean": 25285, "Search": 39954, "Season": 37052, "Seattle": 40718, "Sec": 33099, "Second": 32703, "Secondly": 45527, "Secret": 42592, "Secretary": 36035, "Section": 43480, "Secure": 44381, "Security": 36090, "See": 19224, "Seeing": 37818, "Seg": 42775, "Sel": 39736, "Select": 45356, "Self": 39762, "Sem": 37504, "Semitic": 21004, "Semitism": 19155, "Sen": 24365, "Senate": 35126, "Senator": 36328, "Send": 42735, "Senior": 33867, "Sense": 38239, "Sensor": 48733, "Sent": 35212, "Sep": 37729, "Sept": 22686, "September": 16913, "Sequ": 48245, "Ser": 28498, "Serial": 47070, "Series": 25166, "Seriously": 45067, "Serv": 44175, "Server": 47576, "Service": 32537, "Services": 39868, "Session": 48171, "Set": 28512, "Setting": 46765, "Settings": 47718, "Setup": 49398, "Seven": 35731, "Several": 29182, "Sex": 35581, "Sexual": 44598, "Sh": 3609, "Shadow": 45418, "Sham": 35796, "Shape": 45336, "Shar": 40069, "Share": 11957, "Shares": 12494, "Sharp": 45949, "She": 2515, "Shell": 44806, "Sher": 31722, "Shield": 39278, "Shift": 45161, "Shin": 47086, "Ship": 44098, "Shipping": 47598, "Shock": 44124, "Shop": 39948, "Short": 34256, "Shortly": 44737, "Shot": 42684, "Should": 31231, "Show": 27477, "Shut": 42147, "Si": 35684, "Side": 42530, "Sign": 25675, "Sil": 23719, "Silver": 39008, "Sim": 29656, "Similar": 46444, "Similarly": 45400, "Simon": 37422, "Simple": 45093, "Simply": 42577, "Sin": 42043, "Since": 11321, "Sing": 26292, "Single": 44119, "Sir": 33049, "Sit": 44683, "Site": 40122, "Six": 27696, "Size": 45698, "Sk": 29186, "Skill": 47937, "Skin": 45273, "Skip": 28056, "Sky": 26018, "Sl": 26724, "Sleep": 44108, "Slot": 48969, "Slow": 43725, "Sm": 23996, "Small": 34647, "Smart": 25415, "Smith": 14124, "Sn": 37790, "Snake": 47962, "Snap": 41513, "Snow": 31100, "So": 2847, "Soc": 29971, "Social": 28565, "Socket": 49019, "Soft": 38805, "Software": 45752, "Sol": 39524, "Solar": 44559, "Sold": 44399, "Solid": 45440, "Solution": 48734, "Some": 6323, "Someone": 29375, "Something": 27827, "Sometimes": 13624, "Son": 29111, "Song": 42677, "Sony": 40183, "Soon": 42305, "Sorry": 31535, "Sort": 48117, "Soul": 42572, "Sound": 40866, "Sounds": 45953, "Source": 7061, "SourceFile": 50057, "Sources": 44974, "South": 10050, "Southern": 35984, "Sov": 49246, "Soviet": 37284, "Sp": 12582, "Space": 27404, "SpaceEngineers": 50175, "Spain": 36571, "Spanish": 41226, "Spawn": 49475, "Spe": 29235, "Speaking": 38777, "Spec": 45032, "Special": 25110, "Specific": 46953, "Specifically": 45875, "Spect": 44019, "Speed": 35295, "Spell": 48668, "Sphere": 45097, "Spider": 41624, "Spirit": 43862, "Spl": 43899, "Split": 46744, "Spoiler": 46928, "Spons": 43753, "Sport": 19451, "Sports": 10554, "Spot": 32110, "Spr": 45165, "Spread": 47174, "Spring": 32858, "Squ": 38378, "Square": 44339, "St": 5320, "Stack": 43274, "Staff": 24221, "Stage": 42378, "Stan": 36118, "Stand": 36303, "Standard": 35167, "Standing": 45150, "Star": 4239, "Stars": 25808, "Start": 33724, "Starting": 39777, "Stat": 41706, "State": 13360, "Statement": 46791, "States": 39852, "Static": 48927, "Station": 41925, "Statistics": 47566, "Stats": 45285, "Status": 47731, "Stay": 34112, "Ste": 21426, "Steam": 46633, "Steel": 41297, "Step": 25093, "Stephen": 30273, "Steve": 21976, "Steven": 33184, "Stew": 44317, "Still": 31133, "Stock": 16822, "Stone": 37507, "Stop": 22174, "Storage": 46656, "Store": 40266, "Storm": 36025, "Story": 39630, "Str": 29116, "Stra": 41695, "Strange": 46093, "Stre": 44382, "Stream": 36757, "Streamer": 49508, "StreamerBot": 50202, "Street": 24265, "Strength": 47101, "Stretch": 48519, "Strike": 42302, "String": 34222, "Strong": 30558, "Struct": 44523, "Stud": 46011, "Student": 43541, "Students": 29413, "Studies": 46000, "Studio": 44407, "Study": 45784, "Sty": 46083, "Style": 31774, "Su": 20689, "Sub": 23055, "Subject": 47159, "Submit": 47834, "Subscribe": 41848, "Success": 42697, "Such": 27331, "Suddenly": 44711, "Suggest": 48294, "Sullivan": 26745, "Sum": 38182, "Summary": 47977, "Summer": 30913, "Sun": 8816, "Sund": 45748, "Sunday": 21583, "Sup": 41192, "Super": 16713, "Supp": 33661, "Supplement": 48439, "Support": 38873, "Supported": 47206, "Supporters": 45585, "Sur": 27526, "Sure": 32541, "Surv": 39644, "Sus": 36915, "Susan": 38621, "Sw": 15417, "Swe": 43957, "Sweet": 35942, "Switch": 45112, "Sword": 48728, "Sy": 35615, "Sym": 46994, "Syn": 46437, "Sync": 41342, "Synopsis": 49388, "Syria": 41897, "Syrian": 38291, "Sys": 45438, "System": 36383, "T": 565, "TA": 3847, "TABLE": 46859, "TAG": 46985, "TAIN": 23177, "TB": 16566, "TC": 6078, "TD": 22615, "TE": 6433, "TED": 43036, "TER": 7831, "TERN": 37683, "TEXT": 49347, "TEXTURE": 50064, "TF": 20249, "TG": 37066, "TH": 3732, "THE": 13354, "THER": 38421, "THING": 42965, "THIS": 39648, "TI": 13216, "TIME": 39007, "TING": 36595, "TION": 10263, "TIT": 47217, "TL": 22290, "TM": 14386, "TN": 34521, "TO": 6390, "TON": 8081, "TOP": 28332, "TOR": 18861, "TP": 15993, "TPP": 42774, "TPPStreamerBot": 50203, "TPS": 45796, "TR": 6997, "TRUMP": 47207, "TRY": 37956, "TS": 2685, "TT": 14543, "TV": 2915, "TW": 29334, "TX": 30200, "TY": 6175, "TYPE": 48710, "Ta": 38495, "Tab": 45561, "Table": 41836, "Tact": 48013, "Tag": 45650, "Tags": 49181, "Tai": 41064, "Take": 21031, "Taking": 35490, "Tal": 36812, "Talk": 27743, "Talking": 42943, "Tam": 37545, "Tan": 40461, "Tang": 44274, "Tank": 46192, "Tap": 45129, "Tar": 42183, "Target": 41858, "Task": 47744, "Tax": 29386, "Taylor": 32799, "Te": 16215, "TeX": 49103, "Tea": 45866, "Team": 20158, "Tech": 14396, "Techn": 40529, "Technical": 43997, "Technology": 38976, "Ted": 40348, "Teen": 39556, "Tel": 36417, "Tele": 41854, "Tell": 35438, "Tem": 35888, "Temp": 47971, "Temperature": 48533, "Template": 49522, "Ten": 28612, "Tenn": 34141, "Ter": 32579, "Term": 23036, "Termin": 45720, "Terror": 35568, "Terry": 43062, "Tes": 46715, "Tesla": 39971, "Test": 34603, "Testing": 47446, "Tex": 40175, "Texas": 22456, "Text": 39645, "TextColor": 50035, "Texture": 49461, "Textures": 49851, "Th": 11329, "Thank": 13987, "Thankfully": 42948, "Thanks": 22086, "That": 1711, "The": 133, "Their": 16837, "Theme": 48441, "Then": 12948, "Ther": 43958, "There": 970, "Therefore": 32730, "These": 4528, "They": 1213, "Things": 22616, "Think": 26644, "Third": 42200, "Thirty": 38011, "This": 713, "Thom": 33050, "Thomas": 25089, "Thompson": 41835, "Thor": 42828, "Those": 11195, "Though": 26223, "Thousands": 33383, "Thread": 47563, "Three": 15622, "Through": 23803, "Throughout": 36428, "Throw": 45920, "Thu": 45525, "Thumbnail": 48230, "ThumbnailImage": 50082, "Thunder": 43032, "Thursday": 23023, "Thus": 42702, "Ti": 42631, "Tickets": 44338, "Tier": 44873, "Tile": 48821, "Tim": 23031, "Time": 14699, "Timeout": 49405, "Timer": 49295, "Times": 18921, "Tip": 43691, "Tips": 46070, "Title": 46525, "To": 3972, "Today": 5625, "Todd": 42093, "Together": 32998, "Tok": 41650, "Token": 45643, "Tokens": 49235, "Tom": 15691, "Tomorrow": 38849, "Ton": 44100, "Tonight": 30516, "Tony": 26156, "Too": 10365, "Tool": 46620, "Tools": 47351, "Top": 14323, "Topic": 48931, "Topics": 49020, "Tor": 30562, "Toronto": 30358, "Torrent": 46085, "Total": 37591, "Touch": 40121, "Tour": 31814, "Town": 33528, "Toy": 40074, "Tr": 12667, "Tra": 24523, "Track": 39901, "Tracker": 43438, "Trade": 35996, "Traditional": 45461, "Train": 40249, "Training": 44466, "Trans": 19163, "Transaction": 48132, "Transfer": 46552, "Transform": 44820, "Translation": 48940, "Travel": 39258, "Tre": 33241, "Tree": 33731, "Trend": 44439, "Tri": 35587, "Trigger": 48339, "Trivia": 49245, "Tro": 41141, "True": 36948, "Trump": 7565, "Trust": 18823, "Truth": 41286, "Try": 37172, "Ts": 38516, "Tu": 40768, "Tube": 47538, "Tue": 47284, "Tuesday": 25464, "Tumblr": 49083, "Tur": 38110, "Turkey": 33133, "Turkish": 37300, "Turn": 30093, "Tw": 23638, "Twe": 45659, "Tweet": 44445, "Twenty": 37703, "Twitter": 22838, "Two": 9058, "Tx": 46634, "Ty": 36639, "Tyler": 40270, "Typ": 47572, "Type": 40118, "Types": 48815, "Typically": 43095, "U": 791, "UA": 29766, "UAL": 17710, "UB": 12027, "UC": 12945, "UCK": 23806, "UCT": 28120, "UD": 13083, "UE": 9162, "UES": 8888, "UF": 29457, "UFC": 33118, "UFF": 41477, "UG": 13644, "UGC": 48068, "UGE": 45791, "UGH": 38389, "UI": 18157, "UID": 46508, "UK": 10494, "UL": 6597, "ULAR": 43499, "ULE": 39477, "ULL": 25792, "ULT": 25938, "ULTS": 35843, "UM": 5725, "UME": 35137, "UMP": 23825, "UN": 4154, "UNCH": 25311, "UNE": 30031, "UP": 9673, "UPDATE": 34543, "UR": 2492, "URA": 41018, "URE": 12435, "URES": 28714, "URI": 42338, "URL": 42703, "URN": 28267, "URR": 22323, "URRENT": 42861, "US": 3048, "USA": 9080, "USB": 35404, "USD": 14505, "USE": 27291, "USER": 47955, "USH": 29397, "USS": 16551, "UST": 11120, "UT": 6972, "UTC": 41934, "UTE": 38300, "UTERS": 30332, "UTF": 44987, "UTH": 37985, "UTION": 34058, "UU": 32294, "UV": 31812, "UX": 29150, "Ub": 44588, "Uber": 37562, "Uh": 42903, "Uk": 40264, "Ukraine": 42724, "Ul": 41436, "Ult": 47225, "Ultimate": 46427, "Ultimately": 32591, "Ultra": 45611, "Um": 42025, "Un": 9685, "Uncommon": 49203, "Und": 42061, "Under": 17245, "Understanding": 44188, "Unfortunately": 16861, "Union": 28061, "Unique": 47814, "Unit": 43980, "United": 20556, "Unity": 46024, "Universal": 35011, "University": 29972, "Unix": 49532, "Unknown": 44241, "Unless": 33757, "Unlike": 38243, "Unt": 47402, "Until": 22392, "Untitled": 47689, "Up": 10926, "Update": 39962, "Updated": 37973, "Upgrade": 48886, "Upload": 48800, "Upon": 39986, "Ur": 38046, "Urban": 43475, "Url": 49009, "Us": 16419, "Usage": 49270, "Use": 34447, "Used": 47640, "User": 44518, "Users": 46110, "Using": 36949, "Usually": 35808, "Ut": 41967, "Utah": 34969, "V": 846, "VA": 9788, "VAL": 39766, "VALUE": 49313, "VB": 36394, "VC": 14858, "VD": 28732, "VE": 8856, "VEL": 16641, "VEN": 32260, "VER": 9847, "VERS": 34213, "VERSION": 48195, "VERT": 43857, "VERTIS": 44335, "VERTISEMENT": 11664, "VG": 39997, "VI": 15176, "VICE": 46257, "VID": 43814, "VIDEO": 36662, "VIDIA": 49935, "VIEW": 21735, "VII": 46031, "VILLE": 9199, "VIS": 23111, "VK": 40031, "VL": 38813, "VM": 20954, "VO": 32956, "VOL": 43302, "VP": 12015, "VPN": 38130, "VR": 13055, "VS": 11859, "VT": 35707, "VW": 41399, "Va": 25546, "Val": 20320, "Valid": 48911, "Value": 33977, "Values": 48738, "Van": 34230, "Var": 27717, "Vari": 48269, "Variable": 49029, "Various": 46503, "Vaults": 49912, "Ve": 30660, "Vector": 48417, "Veh": 45691, "Vel": 44522, "Ven": 39043, "Ver": 21119, "Vers": 45399, "Version": 47322, "Versions": 49709, "Vert": 42195, "Very": 25101, "Veter": 40151, "Vi": 43640, "Via": 42567, "Vice": 37142, "Vict": 32094, "Victoria": 38672, "Video": 17967, "View": 22130, "Vill": 38824, "Viol": 40883, "Virgin": 45865, "Virginia": 38477, "Virtual": 46138, "Vis": 27654, "Vision": 36753, "Visit": 45070, "Visual": 47008, "Vo": 37660, "Voice": 36294, "Vol": 30616, "Volume": 39781, "Vote": 39992, "Vs": 13436, "W": 771, "WA": 8460, "WAR": 25014, "WARD": 37610, "WARE": 47701, "WARN": 48976, "WARNING": 46112, "WASHINGTON": 5762, "WATCH": 42050, "WAY": 33520, "WAYS": 47917, "WB": 36489, "WC": 17314, "WD": 18101, "WE": 9112, "WER": 45117, "WF": 34189, "WH": 26369, "WHAT": 44628, "WHERE": 46298, "WHO": 32919, "WI": 29674, "WIN": 28974, "WIND": 44815, "WINDOWS": 49759, "WM": 29395, "WN": 29722, "WOOD": 26988, "WOR": 42204, "WORK": 45213, "WP": 28435, "WR": 19839, "WS": 13691, "WT": 25982, "WW": 20904, "Wa": 38065, "Wait": 36446, "Wal": 30888, "Walk": 33150, "Walker": 41388, "Wall": 28216, "Wallet": 39963, "Wan": 45191, "Want": 38576, "War": 20096, "Ward": 41627, "Ware": 42277, "Warning": 43370, "Warren": 41914, "Wars": 41715, "Was": 32112, "Washington": 22247, "Watch": 14287, "Water": 25589, "Wave": 37334, "Way": 24450, "We": 170, "Weak": 47025, "Weapon": 48971, "Weapons": 48637, "Weather": 29840, "Web": 27521, "Website": 47464, "Wed": 44653, "Wednesday": 26152, "Week": 26355, "Weight": 42158, "Weiss": 48069, "Welcome": 25194, "Well": 8346, "Were": 43822, "West": 9634, "Western": 27467, "Wh": 14447, "What": 2264, "Whatever": 25216, "Whe": 44413, "Wheel": 43560, "When": 1779, "Whenever": 32395, "Where": 13841, "Whereas": 45210, "Whether": 18259, "Which": 32251, "While": 5771, "Whit": 41670, "White": 15725, "Who": 12375, "Whoever": 39858, "Why": 7608, "Wi": 42756, "Wide": 43755, "Widget": 48612, "Width": 49162, "Wik": 45445, "Wiki": 46929, "Wikipedia": 47681, "Wil": 28886, "Wild": 30909, "Will": 17485, "William": 33531, "Williams": 23886, "Wilson": 38455, "Win": 27189, "Wind": 31763, "Window": 48098, "Windows": 43815, "Wing": 45049, "Winged": 49327, "Winner": 46722, "Winter": 33120, "Wire": 22120, "Wisconsin": 38932, "With": 3908, "WithNo": 49840, "Within": 35469, "Without": 20867, "Witness": 43802, "Wo": 44055, "Wolf": 38619, "Woman": 41075, "Women": 19814, "Wonder": 33378, "Wood": 27850, "Word": 44051, "Words": 38257, "Work": 21461, "Working": 33105, "Works": 26025, "World": 10988, "Would": 29042, "Wow": 23692, "Wr": 44142, "Wra": 48265, "Writ": 45987, "Write": 45714, "Writer": 45489, "Writing": 16332, "Written": 45225, "Ws": 41951, "X": 1000, "XL": 35826, "XM": 30440, "XP": 29269, "XT": 29070, "XX": 18313, "XXX": 47980, "XXXX": 48193, "XY": 31578, "Xbox": 46705, "Xi": 41296, "Y": 975, "YA": 35205, "YC": 37074, "YD": 38237, "YE": 32448, "YES": 41010, "YING": 40185, "YL": 41786, "YN": 31644, "YOU": 38158, "YP": 41603, "YR": 23068, "YS": 14780, "YY": 40969, "Yan": 43033, "Yang": 47235, "Ye": 43429, "Yeah": 14783, "Year": 22004, "Years": 43937, "Yellow": 43795, "Yep": 46236, "Yes": 9904, "Yesterday": 31863, "Yet": 34995, "Yo": 33543, "York": 31609, "You": 1185, "YouTube": 36169, "Young": 22138, "Your": 12861, "Yu": 41826, "Z": 1301, "ZA": 22447, "ZE": 33288, "ZI": 40195, "ZX": 46096, "ZZ": 31748, "Ze": 39516, "Zen": 27777, "Zero": 38423, "Zip": 47945, "Zone": 36004, "[": 10975, "[\"": 49329, "['": 48759, "[/": 48505, "[[": 49420, "[]": 48992, "[_": 49895, "\\": 37457, "\\\"": 48110, "\\\",": 49778, "\\\":": 49871, "\\\">": 50206, "\\'": 46495, "\\)": 49489, "\\-": 49731, "\\.": 49410, "\\/": 48182, "\\/\\/": 50004, "\\<": 50068, "\\\\": 48669, "\\\\\\\\": 49964, "\\\\\\\\\\\\\\\\": 50053, "\\\\\\\\\\\\\\\\\\\\\\\\\\\\\\\\": 50022, "]": 742, "]\"": 44717, "]'": 46117, "](": 47620, "])": 45587, "]),": 48677, "]).": 48610, "]);": 48601, "]+": 49154, "],": 7479, "],\"": 17523, "],[": 49092, "]-": 48520, "].": 8174, "].\"": 28578, "]:": 42645, "];": 44082, "]=": 49659, "][": 46386, "][/": 49366, "]]": 48392, "]}": 49750, "^": 35227, "^^": 48232, "^^^^": 26638, "^{": 49688, "_": 1215, "_(": 48124, "_-": 45592, "_-_": 48898, "_.": 47426, "_>": 49982, "__": 30529, "___": 42593, "____": 28784, "_____": 27203, "______": 45627, "_______": 43401, "________": 36440, "________________": 42199, "________________________": 38844, "________________________________": 40321, "________________________________________________________________": 46303, "_{": 49747, "`": 12905, "`,": 48948, "`.": 49024, "``": 49519, "````": 49972, "a": 102, "aa": 6621, "aaa": 44631, "aaaa": 44172, "aah": 46909, "aan": 23081, "ab": 873, "aba": 6412, "abad": 7826, "abal": 21781, "abama": 46947, "aban": 26528, "aband": 31865, "abase": 46972, "abases": 41520, "abb": 8448, "abba": 32672, "abbage": 44866, "abbit": 43581, "abbling": 37333, "abby": 35878, "abc": 36822, "abe": 5084, "abee": 43183, "abel": 14286, "abella": 24738, "aber": 31810, "abet": 32479, "abetes": 42603, "abeth": 31012, "abetic": 44367, "abi": 10810, "abiding": 35149, "abies": 23128, "abil": 14148, "abilia": 25626, "abilities": 25264, "ability": 4484, "abin": 17531, "abis": 28261, "abit": 30820, "abl": 23200, "able": 868, "abled": 19875, "ables": 6058, "abling": 37368, "ablish": 37878, "ablished": 28477, "ablishment": 47960, "ablo": 42180, "ably": 4735, "abo": 21763, "abol": 34342, "abolic": 39225, "abor": 15313, "abortion": 27275, "about": 9006, "abouts": 38921, "above": 23444, "abre": 37366, "abs": 10155, "absolute": 41843, "absolutely": 24002, "absor": 40507, "abul": 42278, "abulary": 38737, "abus": 37039, "abuse": 33045, "abwe": 46938, "aby": 14268, "abyte": 39967, "abytes": 37065, "ac": 1043, "aca": 11893, "acan": 32825, "acas": 19533, "acc": 7904, "acca": 34854, "accept": 35468, "acceptable": 32047, "access": 28300, "accessible": 43343, "acci": 29522, "acco": 20469, "accompan": 49590, "accompanied": 46476, "according": 39388, "account": 36617, "ace": 4450, "acea": 38937, "aceae": 47334, "acebook": 49657, "aced": 8988, "acement": 23423, "acements": 38545, "acent": 20936, "aceous": 40576, "acer": 11937, "acerb": 47603, "acers": 47185, "aces": 11667, "acet": 26799, "aceutical": 18492, "acey": 10042, "ach": 1488, "acha": 22657, "achable": 32885, "ache": 7374, "ached": 12552, "achel": 19173, "achelor": 40852, "acher": 8365, "achers": 19040, "aches": 11322, "achev": 35397, "achi": 16940, "achine": 47480, "aching": 13341, "achment": 26284, "acho": 21110, "acht": 11629, "achu": 46035, "achus": 46798, "achusetts": 45480, "achy": 35600, "aci": 5014, "acia": 21647, "acial": 27015, "acid": 37432, "acies": 15668, "acing": 7575, "acio": 21909, "acion": 8647, "acious": 15525, "aciously": 36845, "acist": 25058, "acists": 44852, "acity": 18583, "ack": 2990, "acked": 10074, "acker": 13374, "ackers": 28785, "acket": 32561, "ackets": 47864, "acking": 7361, "ackle": 37948, "acks": 3400, "acky": 32753, "acl": 40054, "acle": 24618, "acles": 26915, "acly": 49149, "aclysm": 43464, "aco": 12921, "acon": 17486, "acons": 30267, "acqu": 21625, "acre": 12013, "acs": 21703, "act": 7257, "acted": 29179, "acter": 35995, "acteria": 42069, "acterial": 40079, "acters": 48060, "actic": 28201, "acting": 24906, "action": 10845, "actionDate": 50176, "actions": 28929, "activ": 34276, "activate": 44410, "activated": 32362, "activation": 45888, "active": 12228, "actively": 21574, "activity": 30280, "actly": 45548, "actor": 24625, "actory": 27670, "acts": 19170, "actual": 44033, "actually": 40808, "actus": 33028, "acular": 28049, "acus": 40896, "acy": 5073, "ad": 625, "ada": 2095, "adal": 23073, "adan": 30637, "adapt": 43199, "adas": 13920, "adata": 44940, "aday": 25028, "adays": 34461, "add": 4917, "addafi": 45808, "added": 26551, "adden": 23004, "adder": 41027, "adders": 38535, "addin": 35527, "adding": 30547, "addle": 33151, "addock": 39244, "addon": 42246, "addons": 49645, "addr": 49439, "address": 44547, "addy": 14655, "ade": 1829, "aded": 7560, "adel": 24451, "adelphia": 45929, "adem": 33059, "ademic": 41551, "aden": 20223, "adena": 42728, "adeon": 49042, "adequ": 37462, "ader": 7292, "aders": 16434, "ades": 4216, "adesh": 42589, "adh": 16397, "adi": 5416, "adia": 20329, "adian": 33852, "adiator": 45891, "adic": 32944, "adier": 28071, "adies": 40979, "adin": 28585, "ading": 8423, "adiq": 27781, "adish": 30068, "aditional": 49986, "adium": 22131, "adj": 41587, "adjust": 42009, "adjusted": 25350, "adle": 41903, "admin": 46119, "administ": 31302, "ado": 2102, "adobe": 48952, "adoes": 24263, "ador": 9618, "ados": 6510, "adow": 26726, "adows": 35207, "adr": 27968, "adra": 37586, "ads": 7842, "adult": 40688, "adv": 28006, "advant": 40933, "advert": 44034, "advertisement": 48071, "advertising": 46429, "ady": 8772, "ae": 4791, "aea": 38847, "aed": 20380, "aeda": 48690, "ael": 11089, "aeper": 49250, "aepernick": 46980, "aer": 27075, "aeus": 39174, "aez": 26349, "af": 2001, "afa": 15997, "afe": 20120, "afer": 21196, "afety": 46467, "aff": 3707, "affe": 17459, "affected": 31410, "affer": 16717, "affiliated": 33586, "affle": 15442, "affles": 29120, "afi": 16834, "afia": 36633, "afort": 46531, "aft": 31741, "after": 10669, "ag": 1073, "aga": 6080, "again": 23201, "against": 22268, "agall": 44195, "agame": 48760, "agan": 7060, "aganda": 40108, "agar": 12969, "agara": 45282, "agascar": 48459, "agate": 32814, "age": 1580, "aged": 4628, "ageddon": 46573, "agement": 19660, "agements": 46296, "agen": 10955, "agency": 26904, "agent": 23224, "agents": 40784, "ager": 6988, "agers": 14979, "ages": 3443, "agg": 7165, "agged": 11290, "agger": 17864, "agging": 12771, "aggressive": 35844, "agh": 7669, "aghan": 22185, "aghd": 40765, "agher": 33637, "aghetti": 44129, "agi": 18879, "agic": 25725, "agically": 41923, "agin": 23065, "agine": 37620, "aging": 6257, "agle": 21851, "agles": 26007, "agn": 11244, "agna": 33281, "agnar": 48221, "agne": 16784, "agnetic": 44650, "ago": 6643, "agog": 33395, "agogue": 38617, "agon": 11408, "agonal": 43270, "agonist": 46281, "agonists": 48782, "agons": 37231, "agos": 31058, "agra": 30100, "agram": 17654, "agraph": 44947, "agree": 44804, "ags": 8299, "agu": 11993, "ague": 17558, "agues": 27379, "agus": 29962, "agy": 37263, "ah": 895, "aha": 11695, "ahah": 43555, "ahan": 10048, "ahar": 24698, "ahead": 16905, "ahi": 15946, "ahime": 49966, "ahl": 9791, "ahn": 8891, "aho": 30257, "ahon": 42343, "ahoo": 36055, "ahs": 25118, "ahu": 17421, "ai": 1439, "aic": 20620, "aid": 5526, "aida": 36567, "aiden": 41000, "aido": 23759, "aign": 26483, "aii": 36729, "ail": 3760, "aila": 31692, "ailability": 49403, "ailable": 38484, "ailand": 43068, "ailed": 13355, "ailing": 8459, "ails": 11791, "aily": 14671, "aim": 7146, "aiman": 36594, "aimon": 46723, "ain": 1851, "aina": 23482, "aine": 5193, "ained": 7153, "ainer": 22022, "ainers": 41912, "aining": 8173, "ainment": 26741, "ains": 5069, "aint": 12042, "aintain": 37205, "ainted": 30305, "aints": 24487, "air": 2456, "aird": 45057, "aire": 9556, "aired": 35016, "aires": 25082, "airo": 14387, "airs": 18022, "airy": 34506, "ais": 5655, "ait": 5236, "aith": 22724, "aito": 37837, "aj": 1176, "aja": 10737, "aji": 10440, "ajo": 13745, "ajor": 47417, "ak": 677, "aka": 5870, "akable": 30363, "ake": 5113, "aked": 8435, "akedown": 44927, "aken": 12578, "akening": 44829, "akens": 45830, "aker": 4218, "akers": 6650, "akeru": 49782, "akery": 45600, "akes": 5556, "akespe": 47455, "akespeare": 46214, "akh": 7352, "aki": 7387, "akia": 31761, "akin": 22576, "aking": 7520, "akings": 32711, "akis": 17622, "ako": 11041, "akov": 29490, "akra": 44219, "aks": 6629, "aku": 7386, "akura": 43349, "akuya": 47705, "aky": 18162, "al": 337, "ala": 2331, "alach": 45551, "alam": 23590, "alan": 17330, "albeit": 41324, "album": 43465, "alcohol": 28574, "ald": 5618, "alde": 37331, "aldehyde": 42842, "aldi": 22564, "aldo": 23340, "ale": 1627, "aleb": 34738, "aled": 9389, "aleigh": 42359, "aler": 29170, "alert": 39383, "ales": 4575, "aley": 11331, "alez": 40970, "alf": 10595, "alg": 31316, "algia": 39883, "ali": 3644, "alia": 6956, "alian": 21999, "alias": 47910, "aliation": 47017, "alid": 29849, "alien": 38968, "align": 44022, "aligned": 36967, "alin": 26272, "aline": 34637, "aling": 8279, "alion": 47067, "alions": 44029, "alis": 21133, "alist": 39295, "alities": 29356, "ality": 6948, "alk": 9707, "alker": 38198, "alking": 32708, "alks": 31334, "alky": 44068, "alkyrie": 49289, "all": 1250, "alla": 13421, "allah": 18897, "allas": 35449, "alle": 11186, "alled": 9315, "allel": 44682, "allery": 47798, "alli": 19273, "allic": 43300, "alling": 9391, "allion": 37696, "allo": 24061, "alloc": 48429, "allow": 25487, "allowed": 34742, "alloween": 42032, "allows": 37984, "alls": 12019, "ally": 2368, "alm": 30293, "almost": 26949, "alo": 7747, "alog": 31263, "alogue": 47099, "alogy": 38674, "alon": 30521, "alone": 22446, "along": 20774, "alore": 45013, "alos": 41766, "alph": 40812, "alpha": 29135, "als": 1536, "alsa": 37987, "alse": 33896, "alsh": 41849, "also": 19726, "alt": 3967, "alted": 43332, "alter": 32815, "altern": 34268, "alth": 29547, "although": 24648, "alties": 31438, "alty": 12107, "alus": 40254, "always": 30035, "aly": 7776, "alys": 38711, "alysed": 37596, "alyses": 44965, "alysis": 45253, "alyst": 38555, "am": 424, "ama": 2583, "amac": 45029, "amacare": 35732, "aman": 7243, "amar": 21216, "amara": 27086, "amaru": 47366, "amas": 16711, "amate": 45530, "amation": 31936, "amaz": 26732, "amazon": 43358, "amb": 3146, "amba": 14996, "amber": 19383, "ambers": 46877, "ambling": 30116, "ambo": 28047, "amboo": 43246, "amd": 45594, "ame": 4344, "amed": 7486, "ameda": 25108, "amel": 22044, "ameless": 37955, "amen": 21228, "ament": 5511, "amental": 30095, "aments": 26494, "amer": 8015, "amera": 39194, "ameron": 35953, "ames": 12336, "ami": 5602, "amia": 41696, "amic": 21515, "amide": 39522, "amiliar": 42911, "amily": 32455, "amin": 13941, "amina": 41568, "amination": 41121, "amine": 19565, "aminer": 46889, "amines": 40168, "aming": 9708, "amins": 44053, "amiya": 45554, "aml": 47750, "amm": 12614, "ammad": 41007, "ammed": 21639, "ammers": 25690, "ammu": 15614, "ammy": 40772, "amn": 40060, "amo": 12705, "amon": 22704, "among": 31636, "amorph": 41801, "amoto": 27439, "amount": 31233, "amous": 30681, "amp": 3914, "ampa": 20564, "amped": 16458, "amph": 46976, "amphetamine": 43924, "amping": 26114, "ampion": 33001, "ampions": 34459, "ampire": 47560, "ampires": 47130, "ample": 29069, "amples": 45598, "ampoo": 44864, "amps": 9782, "ampton": 18576, "ampunk": 46319, "ams": 7042, "amsung": 48545, "amura": 27929, "amus": 24389, "amy": 12463, "an": 260, "ana": 1113, "analy": 31111, "analysis": 31116, "anamo": 49018, "anan": 23935, "anas": 16264, "anasia": 37935, "anc": 3290, "anca": 19740, "ance": 2389, "anced": 16325, "ancel": 43970, "ancer": 20126, "ancers": 19859, "ances": 5332, "anch": 10459, "anche": 13706, "anches": 23833, "anchester": 46144, "anchez": 43525, "ancial": 47142, "ancies": 27661, "ancing": 7710, "anco": 22289, "ancock": 47371, "ancouver": 40601, "ancy": 9875, "and": 463, "anda": 5219, "andal": 17856, "andals": 33222, "andan": 20828, "ande": 20702, "anded": 13833, "andel": 25849, "andem": 43171, "ander": 6072, "andering": 32741, "anders": 37429, "andestine": 47931, "andi": 17849, "anding": 20515, "andise": 43876, "ando": 5502, "andom": 46861, "andon": 19490, "andowski": 23639, "andr": 36326, "andra": 19432, "andre": 34537, "andro": 22967, "android": 47899, "ands": 8771, "andum": 34087, "andy": 10708, "ane": 1728, "aned": 22597, "aneers": 47258, "aneous": 33101, "aneously": 43320, "anes": 11372, "aney": 8650, "ang": 1097, "anga": 9615, "angan": 25750, "ange": 10987, "anged": 17770, "angel": 21340, "angelo": 30908, "anger": 8395, "angered": 34979, "angering": 25913, "angers": 15574, "anges": 33094, "angible": 44321, "anging": 23786, "angle": 14982, "angled": 19605, "angler": 32268, "angles": 38756, "angling": 26325, "ango": 12379, "angs": 16917, "angu": 21822, "anguage": 49520, "anguages": 48957, "anguard": 40019, "angular": 46482, "ani": 1543, "ania": 8295, "anian": 26106, "anic": 26728, "anical": 28877, "anie": 23302, "aniel": 35947, "anim": 25042, "animal": 41204, "animate": 45687, "animous": 43229, "aning": 19266, "anish": 28627, "anism": 47838, "anity": 30854, "anium": 42649, "ank": 3153, "anka": 14391, "anke": 23578, "anked": 22697, "ankind": 45917, "anking": 20327, "anks": 10950, "anky": 30451, "anmar": 43918, "ann": 2279, "anna": 4057, "annabin": 45123, "annah": 25984, "anne": 8799, "anned": 12788, "annel": 28189, "annels": 34735, "anners": 32173, "anni": 28867, "annie": 17041, "annis": 31539, "annon": 17375, "annot": 37250, "announced": 29096, "anny": 13749, "ano": 2601, "anoia": 47733, "anol": 38315, "anon": 38230, "anooga": 47401, "anos": 21850, "another": 30303, "anova": 18980, "anqu": 42134, "ans": 1253, "ansas": 38058, "anse": 31327, "ansen": 21205, "anship": 48014, "ansion": 40787, "ansk": 30075, "anski": 24345, "ansky": 31878, "ansom": 32387, "anson": 15927, "ansson": 26277, "answer": 27740, "answered": 47774, "ant": 927, "anta": 11485, "antage": 34237, "antam": 26287, "antasy": 40650, "ante": 5285, "anted": 17184, "antes": 16738, "anth": 16390, "antha": 43284, "anthrop": 36046, "anti": 10865, "antic": 26970, "antically": 38600, "anticipated": 19874, "antics": 46304, "antine": 43212, "anting": 30712, "antis": 22122, "antle": 29286, "antly": 12106, "anto": 13688, "antom": 37203, "anton": 19425, "antry": 36747, "ants": 3277, "anty": 36488, "antz": 25374, "anu": 11115, "anus": 40037, "anut": 34807, "anuts": 43931, "anwhile": 49241, "any": 3785, "anya": 12837, "anyahu": 46526, "anye": 36618, "anyl": 48506, "anyon": 45955, "anything": 40432, "anz": 14799, "anza": 19209, "ao": 3853, "aos": 34317, "ap": 1115, "apa": 17433, "apache": 48530, "apan": 20948, "ape": 5776, "apeake": 21192, "aped": 14677, "apego": 48938, "aper": 15888, "apers": 24225, "apes": 22179, "apesh": 47684, "apeshifter": 49021, "apest": 45860, "aph": 8258, "aphael": 47738, "api": 30602, "aping": 11470, "apist": 33688, "apixel": 21424, "aple": 44003, "aples": 48140, "apo": 24812, "apolis": 20048, "apolog": 30961, "apon": 36951, "apons": 48858, "apor": 42834, "apore": 31066, "app": 3340, "appa": 22181, "apped": 11251, "append": 48696, "apper": 11688, "appers": 29559, "appiness": 37055, "apping": 12040, "appings": 38391, "apple": 27326, "application": 40545, "apply": 44847, "appointed": 19051, "appro": 27666, "appropri": 31374, "appropriate": 23360, "appropriately": 46626, "approved": 20383, "approximately": 39073, "apps": 32733, "appy": 31953, "aps": 7527, "apse": 26053, "apsed": 40925, "apses": 42918, "apt": 14455, "apter": 48575, "apters": 48160, "aptic": 47553, "aptop": 39782, "apult": 46596, "apy": 32748, "aq": 18611, "aqu": 25930, "aque": 35485, "aques": 32441, "aquin": 23186, "ar": 271, "ara": 1742, "arag": 43884, "arah": 36000, "arak": 23749, "aram": 16384, "aran": 14119, "arant": 19112, "arantine": 47335, "araoh": 46726, "arat": 15021, "arate": 29585, "aration": 36466, "arations": 39519, "arb": 25364, "arbon": 40035, "arc": 9636, "arcer": 45734, "arch": 13161, "arching": 46323, "archive": 46862, "archives": 45974, "archment": 47623, "archs": 29131, "archy": 37208, "arcity": 47769, "ard": 1120, "arde": 19043, "arded": 16230, "arden": 13948, "ardi": 11147, "arding": 16014, "ardless": 44543, "ardo": 6782, "ardon": 21962, "ards": 5954, "ardy": 17391, "are": 1322, "area": 7907, "ared": 6537, "aredevil": 47768, "arel": 21604, "arella": 26771, "aren": 9475, "arent": 35558, "arenthood": 40532, "arently": 45314, "arer": 21160, "arers": 22945, "ares": 5347, "arest": 18759, "aret": 19508, "areth": 35893, "arette": 43650, "arettes": 46322, "aretz": 40781, "arez": 24024, "arf": 21377, "arg": 5384, "arge": 16347, "arger": 28186, "arget": 45358, "argo": 22740, "argon": 46974, "args": 48204, "argument": 46494, "ari": 1512, "aria": 8954, "arial": 27774, "arian": 9063, "arians": 13291, "ariat": 18014, "arie": 17121, "aries": 5119, "arij": 43482, "arijuana": 41054, "arily": 19048, "arin": 15394, "arine": 27323, "aring": 5867, "ario": 7718, "arios": 24198, "arious": 38313, "aris": 17661, "arist": 33547, "arity": 21528, "arium": 22050, "arius": 17334, "ark": 3994, "arkable": 36774, "arkin": 26932, "arks": 15921, "arl": 11278, "arlane": 33230, "arling": 34529, "arm": 4526, "arma": 15277, "armac": 28281, "armed": 17651, "arming": 21728, "armor": 48705, "arms": 26852, "arn": 4422, "arna": 25573, "arnaev": 49807, "arning": 47433, "aro": 5191, "aron": 9303, "aroo": 32750, "around": 13837, "arov": 26562, "arp": 11230, "arr": 6166, "arranted": 34193, "arrass": 35700, "array": 30766, "arre": 19205, "arrell": 29817, "arrett": 43489, "arrison": 42792, "arro": 19136, "arrow": 17214, "arry": 12795, "ars": 2726, "arse": 21284, "arser": 48046, "arsh": 14980, "arsity": 13669, "arson": 24858, "art": 2013, "arta": 28721, "arte": 13775, "arted": 26587, "arten": 18567, "arter": 24391, "arters": 40758, "arth": 16880, "arthed": 48061, "arthy": 47150, "article": 31154, "articles": 32315, "artifacts": 49504, "artisan": 43512, "artist": 42921, "artment": 27699, "artments": 27101, "artney": 47488, "arton": 24735, "arts": 7870, "arty": 17513, "artz": 32577, "aru": 21407, "arus": 42292, "ary": 1766, "arya": 23588, "aryl": 45456, "aryn": 31604, "as": 281, "asa": 8810, "asaki": 25280, "asant": 35392, "asar": 31126, "asc": 8631, "asca": 32083, "ascade": 48431, "ascal": 40657, "ascar": 45430, "ascist": 45484, "ascript": 49304, "ascular": 36126, "ascus": 47362, "ase": 3175, "ased": 11835, "asel": 44123, "aser": 12425, "asers": 22476, "ases": 9354, "ash": 1671, "asha": 15144, "ashed": 9512, "asher": 37229, "ashes": 14829, "ashi": 11786, "ashing": 8141, "ashington": 40886, "ashion": 36534, "ashtra": 42252, "asi": 8209, "asia": 19036, "asin": 36343, "asing": 7913, "asio": 20821, "asion": 27720, "asionally": 47030, "asions": 38258, "asis": 17048, "asive": 33745, "ask": 4970, "aska": 22137, "asket": 20997, "asketball": 45126, "asking": 30954, "asks": 40981, "asley": 22857, "asm": 16836, "asma": 42089, "asms": 34616, "ason": 12231, "asonable": 44640, "asonic": 38703, "asonry": 42687, "asons": 32781, "asp": 9331, "aspberry": 48515, "asper": 45120, "aspers": 27254, "aspx": 40428, "ass": 2401, "assad": 44642, "assador": 45690, "assadors": 39876, "assault": 31258, "asse": 10627, "assed": 29591, "assemb": 45516, "assembled": 42376, "assembly": 44979, "asser": 16151, "assert": 46346, "asses": 24473, "assets": 44922, "assetsadobe": 50230, "assi": 23838, "assian": 40310, "assic": 41139, "assies": 47473, "assin": 42846, "assing": 13613, "assion": 22947, "assis": 39363, "assisted": 30183, "assium": 45736, "assment": 34145, "asso": 21413, "associated": 38838, "assuming": 34730, "assy": 27633, "ast": 1988, "asta": 17078, "aste": 14631, "asted": 14317, "aster": 8831, "astered": 34367, "astern": 34927, "asters": 22125, "astery": 42566, "astic": 11599, "astical": 40707, "astically": 41936, "astics": 11890, "asting": 15374, "aston": 24374, "astrous": 45855, "asts": 13651, "asty": 19626, "asu": 30007, "asure": 24669, "asured": 29323, "asures": 42832, "asuring": 40786, "asury": 44379, "asus": 47829, "asy": 17400, "at": 415, "ata": 2186, "atable": 18564, "ataka": 15078, "atal": 14720, "atalie": 44510, "atan": 21785, "atana": 45697, "atar": 18416, "atari": 22920, "atars": 40487, "atch": 11175, "atche": 36582, "atched": 27407, "atcher": 43824, "atches": 24700, "atchewan": 46921, "atching": 20262, "ate": 877, "atech": 41072, "ated": 1070, "ateful": 39264, "ateg": 27586, "ategic": 32281, "ategor": 40918, "ategories": 45885, "ategory": 49687, "ategy": 41220, "atel": 26591, "atell": 26142, "atellite": 43089, "ately": 7223, "atem": 43371, "aten": 26511, "ater": 5109, "ateral": 36258, "aterasu": 49591, "atered": 33114, "aterial": 36270, "atern": 36359, "aternal": 33305, "aternity": 36156, "aters": 11837, "ates": 1626, "ateur": 33102, "ateurs": 30167, "atever": 49716, "atform": 47346, "ath": 2681, "atha": 20647, "atham": 15317, "athan": 15322, "athe": 23872, "athed": 27205, "ather": 13860, "athered": 27694, "atherine": 38687, "athering": 37686, "athetic": 41658, "athi": 20206, "athing": 41778, "athlon": 22166, "athom": 29125, "athon": 23357, "aths": 31360, "athy": 17543, "ati": 3648, "atial": 37438, "atibility": 46318, "atible": 45740, "atic": 5183, "atical": 36105, "atically": 23050, "atican": 47474, "atics": 22442, "atile": 36931, "atility": 25979, "atin": 16779, "ating": 1295, "atinum": 42229, "atio": 42623, "ation": 1258, "ational": 5033, "ationally": 29688, "ations": 1635, "atis": 27048, "atisf": 33315, "atism": 44329, "ative": 3693, "atively": 10481, "atives": 11649, "ativity": 39716, "atl": 35887, "atlantic": 31283, "atmeal": 38615, "ato": 3938, "atoes": 31198, "atography": 34226, "atom": 40144, "atomic": 45826, "aton": 12665, "atonin": 43515, "atoon": 17490, "ator": 2630, "atorial": 26202, "atories": 28172, "atorium": 37856, "ators": 3629, "atory": 5257, "atos": 29501, "atown": 45370, "atra": 15560, "atre": 19956, "atri": 24879, "atro": 25357, "atron": 44404, "ats": 2923, "atson": 33081, "atsu": 29689, "atsuki": 47497, "att": 2611, "atta": 10460, "attach": 47277, "attack": 20505, "attacks": 25764, "atted": 19747, "atten": 21739, "atter": 7933, "attered": 26252, "attering": 24203, "atters": 30753, "attery": 35536, "atti": 13528, "attle": 19598, "attled": 43461, "atto": 28741, "atton": 20190, "attr": 44156, "attribute": 49202, "atts": 26366, "atu": 20355, "atum": 15368, "atur": 8367, "atural": 47310, "aturally": 44169, "aturated": 38680, "aturation": 41628, "aturday": 47035, "aturdays": 48015, "ature": 18830, "atures": 15488, "atus": 29913, "atz": 15586, "au": 1180, "auc": 17527, "aucas": 47317, "aucus": 43710, "aucuses": 48762, "aud": 5247, "auder": 44533, "audi": 44856, "audio": 24846, "auer": 9994, "aug": 12361, "auga": 24491, "augh": 11675, "aughed": 48250, "aughlin": 19326, "aughs": 45206, "aught": 19906, "aughter": 35609, "aughtered": 48138, "aughters": 28649, "aughty": 42942, "aukee": 45196, "aul": 6695, "auld": 34860, "auldron": 43403, "ault": 8839, "aults": 37624, "aum": 22317, "aun": 7381, "auna": 25729, "aunch": 28507, "aund": 26097, "aunder": 39686, "aundering": 31734, "aunders": 47594, "aunt": 20817, "aunted": 19264, "aunting": 26030, "auntlet": 41239, "auntlets": 48868, "aunts": 33774, "aur": 8616, "aura": 34541, "auri": 34820, "aurus": 30236, "aus": 7743, "ause": 17498, "ausible": 42500, "aut": 4255, "auth": 46217, "authent": 40907, "author": 11515, "authored": 32317, "authorized": 42067, "authors": 35827, "autical": 26832, "aution": 49818, "autions": 47138, "auto": 39545, "automatic": 27106, "auts": 34595, "aux": 8624, "av": 1469, "ava": 8604, "avage": 25571, "availability": 39798, "available": 34659, "aval": 19339, "avan": 10937, "avanaugh": 39761, "avascript": 49787, "ave": 4097, "aved": 12061, "avement": 34413, "aven": 10570, "aver": 9903, "average": 20365, "avering": 28031, "avers": 19557, "avery": 42830, "aves": 9419, "avez": 46075, "avi": 11132, "avia": 21866, "avid": 23656, "avier": 37041, "avin": 27374, "aving": 13286, "avior": 47475, "aviour": 38282, "avis": 18045, "avoid": 40623, "avor": 22042, "avorable": 42112, "avored": 36905, "avorite": 49669, "avour": 18633, "avy": 19909, "aw": 1584, "awa": 6498, "awaited": 18536, "awan": 17144, "awar": 20373, "aware": 24590, "awareness": 39495, "awaru": 49816, "awatts": 23643, "away": 4384, "aways": 17119, "awed": 32211, "awei": 44087, "awi": 9665, "awk": 13225, "awks": 33550, "awn": 11716, "aws": 17415, "ax": 3631, "axe": 45269, "axies": 47957, "axis": 33966, "axter": 45819, "axy": 39656, "ay": 857, "aya": 5210, "ayan": 10790, "aye": 18328, "ayed": 12198, "ayer": 19777, "ayers": 24950, "ayette": 19283, "aying": 11918, "aylor": 28897, "ayn": 27642, "ayne": 34090, "ays": 4113, "ayson": 37572, "az": 1222, "aza": 11868, "azaar": 26496, "azaki": 38357, "azar": 18692, "azard": 38306, "aze": 10129, "azed": 16314, "azeera": 43734, "azel": 43874, "azer": 14609, "azes": 24505, "azi": 12934, "azine": 37855, "azines": 45462, "azing": 22736, "azo": 28765, "azon": 20524, "azor": 39784, "azy": 24832, "azz": 7706, "b": 428, "ba": 3178, "bable": 44230, "bably": 46363, "baby": 29126, "bach": 12842, "back": 1644, "backed": 6996, "backer": 34350, "background": 46776, "backs": 6205, "bad": 10999, "bag": 14118, "bage": 36772, "bags": 19090, "bah": 28185, "bal": 8667, "balance": 30821, "balanced": 29683, "ball": 3512, "balls": 21849, "ban": 7384, "band": 9484, "bands": 34931, "bane": 34498, "bang": 31313, "bank": 5760, "banks": 27045, "bar": 4901, "bara": 31533, "bard": 34987, "bare": 35219, "bars": 38493, "bart": 38372, "bas": 15609, "base": 11070, "based": 805, "bash": 44551, "basic": 42607, "basketball": 24167, "bass": 34032, "bat": 12161, "batch": 35001, "bath": 26407, "bats": 20266, "battle": 39836, "baugh": 35594, "baum": 19898, "bay": 18707, "bb": 14141, "bc": 23219, "bd": 35470, "bda": 48631, "be": 1610, "beam": 28251, "bean": 16595, "beans": 18771, "bear": 36429, "beard": 44330, "bearing": 26195, "beat": 13825, "beaut": 28878, "bec": 13639, "because": 13437, "becca": 39746, "beck": 16825, "becue": 41368, "bed": 5134, "bedroom": 15112, "bee": 14650, "been": 35507, "beer": 38788, "bees": 41304, "before": 23033, "begin": 43230, "beh": 24170, "behavior": 40397, "behind": 32424, "being": 9442, "beit": 23274, "bek": 31211, "bel": 8494, "bell": 11312, "below": 36195, "belt": 24187, "ben": 5720, "bench": 31240, "bender": 40483, "bending": 43061, "benef": 41908, "benefit": 38010, "bent": 35273, "ber": 1943, "bered": 30546, "berg": 2865, "berger": 11178, "berman": 43049, "bern": 27598, "bernatorial": 46639, "berra": 45760, "berries": 22852, "berry": 8132, "bers": 9569, "bert": 6747, "berto": 38128, "berus": 49496, "bery": 23138, "bes": 16768, "best": 7885, "bestos": 46698, "bet": 14600, "beta": 44263, "bett": 28826, "better": 24836, "between": 25784, "bey": 27993, "bf": 36920, "bg": 35725, "bh": 22549, "bi": 5605, "bia": 35472, "bial": 45744, "bian": 41917, "bians": 46703, "biased": 45250, "bid": 27607, "bidden": 47747, "bie": 12750, "bies": 26910, "big": 8527, "bike": 20974, "bil": 25799, "bill": 24916, "billion": 9026, "bilt": 44386, "bin": 9413, "binary": 40155, "bind": 41744, "binding": 28378, "bing": 6721, "biology": 41475, "bird": 15886, "birds": 17921, "birth": 33272, "bis": 32272, "bish": 44011, "bishop": 32841, "bit": 5881, "bitcoin": 47197, "bite": 33996, "bitious": 43193, "bits": 32131, "biz": 12725, "bj": 37303, "bl": 3662, "black": 14178, "blade": 41469, "blance": 49267, "blank": 35763, "blast": 43187, "ble": 5225, "bleacher": 16243, "bled": 10288, "bledon": 9514, "blem": 44081, "blems": 42216, "bler": 26539, "blers": 25274, "bles": 11060, "bley": 44194, "blind": 34819, "bling": 12947, "block": 16776, "blocking": 38797, "blocks": 30963, "blog": 24635, "blogs": 45848, "blogspot": 41057, "blood": 22776, "blooded": 41223, "blow": 42671, "blown": 22625, "blue": 22128, "bly": 27104, "bm": 43531, "bn": 6316, "bnb": 46276, "bo": 3983, "boa": 28437, "board": 4929, "boarding": 20592, "boards": 15659, "boat": 14859, "boats": 34015, "bodied": 34104, "body": 9773, "bol": 18217, "bold": 30508, "bole": 38373, "bolt": 39560, "bomb": 27076, "bon": 12573, "bone": 18026, "bones": 34394, "bons": 16830, "book": 6298, "books": 17788, "bool": 46787, "boost": 33934, "boot": 40571, "bor": 12514, "border": 16720, "borg": 28659, "borgh": 29624, "born": 5400, "borne": 17080, "boro": 9195, "borough": 8046, "bors": 19357, "bos": 31957, "boss": 40426, "bot": 12749, "both": 17143, "bots": 26478, "bott": 33840, "bottom": 23724, "bound": 4092, "bour": 22482, "bourg": 26695, "bourne": 17063, "bow": 14271, "bowl": 37120, "bows": 40292, "box": 8304, "boxes": 34341, "boxing": 35687, "boy": 9902, "boys": 22505, "bp": 20794, "bps": 27072, "br": 3809, "bra": 15571, "brace": 37123, "brain": 36436, "brainer": 31246, "bral": 44283, "brance": 27517, "brand": 11638, "branded": 20417, "braska": 44707, "brate": 39518, "brates": 42428, "bre": 7805, "bread": 23181, "break": 10339, "breaker": 19759, "breakers": 34691, "breaking": 10536, "breaks": 41343, "bred": 24550, "breeding": 44185, "brew": 30975, "brid": 21676, "bridge": 7820, "brids": 47050, "bright": 23471, "bring": 29715, "bringer": 48212, "bringing": 44710, "bris": 39927, "bro": 7450, "broad": 32990, "broken": 15894, "brook": 11434, "brother": 28638, "brow": 39457, "brown": 31876, "browser": 48024, "brush": 30241, "bryce": 49492, "bs": 4311, "bsite": 46462, "bsp": 39596, "bt": 25933, "btn": 49231, "bu": 9519, "bub": 39321, "buck": 28777, "bucks": 40132, "budget": 26155, "buf": 48939, "buff": 43637, "buffer": 47438, "bug": 37148, "bugs": 41594, "build": 23411, "builder": 30511, "builders": 32798, "building": 11557, "built": 16353, "bul": 21343, "bull": 17559, "bum": 30406, "buquerque": 48775, "bur": 10734, "burg": 3321, "burgh": 24035, "burn": 7554, "burning": 33324, "burse": 30564, "burst": 42342, "bury": 4232, "bus": 18924, "bush": 23009, "business": 11880, "buster": 36543, "busters": 32353, "but": 4297, "butt": 39707, "button": 32135, "buy": 3746, "by": 1409, "bye": 33542, "byn": 44296, "bys": 25372, "byss": 49889, "byte": 47692, "byter": 46351, "bytes": 46823, "c": 438, "ca": 3245, "cache": 47974, "cade": 26671, "cair": 46811, "cake": 31818, "cakes": 33579, "cal": 11762, "cale": 34012, "caliber": 29422, "call": 16395, "callback": 49499, "called": 4155, "calling": 33485, "cam": 16767, "camera": 25092, "camp": 21669, "campaign": 37532, "campus": 28135, "can": 7424, "cancer": 33596, "cand": 32503, "cano": 38754, "canon": 47696, "cap": 10906, "capacity": 25421, "cape": 34096, "capital": 25539, "capitalist": 45303, "caps": 25879, "capt": 18543, "car": 5901, "carb": 40957, "carbon": 23612, "card": 6940, "cards": 29162, "care": 6350, "carry": 31123, "cars": 28986, "cart": 33663, "cas": 20363, "case": 11173, "cases": 28162, "cash": 20122, "cast": 5182, "caster": 15543, "casters": 16378, "casting": 36683, "castle": 24773, "casts": 25303, "cat": 8729, "catch": 36847, "catching": 24882, "category": 42747, "catentry": 50207, "cation": 41684, "cats": 19295, "cause": 27037, "cb": 38133, "cc": 7309, "cca": 17782, "ccess": 47862, "cci": 12870, "ccoli": 44247, "ccording": 49735, "cd": 28690, "cdn": 47439, "ce": 1755, "cean": 35210, "ceans": 26705, "ced": 7618, "cedented": 34323, "cedes": 40208, "ceed": 32326, "ceivable": 39867, "ceive": 6550, "ceived": 31597, "ceiver": 44168, "cel": 9736, "cele": 31828, "celer": 24608, "cell": 7841, "cellaneous": 40988, "cellence": 46716, "cellent": 39462, "cells": 40936, "celona": 33538, "cember": 47153, "cemic": 45582, "cence": 42808, "cend": 34097, "cens": 44177, "cent": 6342, "center": 15497, "centered": 32055, "central": 16620, "centric": 19483, "century": 11046, "cephal": 38407, "cept": 16771, "ception": 20900, "ceptions": 35529, "ceptive": 42579, "ceptor": 45348, "cer": 7742, "cern": 38987, "cerned": 37701, "cerning": 41770, "cerpt": 39406, "cers": 19528, "cert": 25782, "certain": 31097, "cery": 36597, "ces": 4643, "cess": 19348, "cession": 34770, "cessive": 37013, "cest": 35678, "cester": 27811, "cf": 19911, "cffff": 50092, "cffffcc": 50183, "cfg": 49174, "cgi": 47753, "ch": 611, "cha": 7794, "chain": 26149, "chains": 42433, "chair": 13599, "chairs": 27714, "chal": 27126, "chall": 25324, "cham": 45346, "chan": 14717, "chance": 32207, "change": 14035, "changed": 37541, "changes": 34980, "changing": 13378, "channel": 27681, "channelAvailability": 50220, "chant": 40805, "chanted": 45363, "chapter": 47252, "char": 24262, "character": 23375, "chard": 15782, "charg": 36068, "charge": 15040, "charged": 18716, "charges": 30364, "charging": 22874, "chart": 40500, "chat": 29465, "che": 2871, "cheat": 47199, "check": 15954, "checked": 41641, "checking": 33851, "checks": 28511, "ched": 3804, "chedel": 46443, "chel": 22448, "chell": 25365, "chem": 25666, "chemical": 22987, "chemist": 48323, "chemy": 45712, "chen": 8224, "chenko": 25592, "chens": 34456, "cheon": 16285, "cher": 5260, "chers": 7873, "chery": 26154, "ches": 5559, "chest": 42311, "chester": 17419, "chet": 23024, "chev": 42074, "chi": 7930, "chid": 38019, "chie": 17309, "chief": 15276, "chieve": 48316, "child": 14069, "children": 15097, "chin": 16682, "ching": 7968, "chini": 33764, "chio": 27680, "chip": 16142, "chlor": 39220, "chn": 13212, "chnology": 49059, "cho": 11156, "choes": 48932, "choice": 24335, "chool": 27085, "christ": 27790, "chrom": 45872, "chrome": 46719, "chron": 30630, "cht": 8797, "chu": 39037, "chuk": 20756, "church": 23420, "chwitz": 48777, "chy": 17414, "ci": 2520, "cia": 14555, "cial": 15585, "cially": 24354, "ciating": 48027, "ciation": 48131, "cible": 42197, "cience": 30836, "cient": 29318, "cientious": 48270, "cients": 48319, "cies": 32510, "cific": 45404, "cig": 47112, "cigarette": 36083, "cigarettes": 27147, "cil": 17286, "cill": 16412, "cin": 28366, "cing": 11162, "cious": 22191, "cipl": 40146, "cipled": 46561, "ciples": 44633, "ciplinary": 35569, "cipline": 38231, "circ": 31362, "circle": 44467, "cise": 44568, "cised": 48843, "cision": 37938, "cit": 34630, "citizens": 33632, "city": 14853, "cium": 43526, "cius": 40271, "civil": 37635, "ck": 2420, "cker": 8956, "cki": 24772, "cking": 32370, "cknow": 47678, "cknowled": 42852, "cko": 43205, "cks": 15291, "cl": 3998, "clad": 25769, "claim": 31628, "claimed": 29639, "claimer": 33097, "clair": 31238, "clamation": 25121, "class": 4684, "classes": 44770, "classic": 41755, "classified": 34871, "clave": 38121, "claw": 43385, "cle": 16008, "clean": 28401, "clear": 18763, "cled": 34585, "cler": 39255, "clerosis": 42138, "cles": 20639, "cli": 48556, "click": 23008, "client": 38557, "cliffe": 20152, "climate": 36695, "cling": 21050, "clinical": 31903, "clinton": 45397, "clip": 46413, "clips": 45710, "clipse": 45528, "clock": 17036, "clone": 31496, "cloneembedreportprint": 50172, "close": 22641, "closed": 25315, "closure": 26085, "cloth": 41262, "cloud": 26601, "club": 21858, "clud": 47902, "clude": 46962, "cluded": 26441, "cludes": 44313, "cluding": 19586, "clus": 19734, "clusion": 27953, "clusions": 41092, "clusive": 15871, "clusively": 39830, "cm": 13753, "cmd": 48211, "cmp": 48427, "cms": 22408, "cn": 24240, "co": 876, "coal": 35134, "coat": 29582, "cock": 14483, "cod": 29659, "code": 20414, "coded": 43301, "codes": 43892, "coe": 25595, "cohol": 45270, "coin": 16973, "coins": 45335, "col": 9119, "cold": 33912, "coll": 27454, "collar": 27543, "collect": 32177, "collection": 44443, "college": 22313, "colm": 44557, "colo": 43639, "colonial": 40526, "color": 21685, "colored": 21189, "colour": 42082, "column": 42351, "com": 175, "comb": 15302, "combat": 42880, "combe": 24264, "come": 19807, "comed": 40478, "comes": 32696, "comfort": 42250, "coming": 7936, "comings": 47657, "comm": 24302, "command": 41483, "comment": 44951, "comments": 46788, "commerce": 8342, "commercial": 33798, "commit": 42721, "committee": 41328, "common": 27278, "commun": 27217, "communication": 24741, "communications": 42718, "community": 28746, "comp": 11828, "compan": 39788, "company": 24233, "compatible": 41799, "competitive": 29288, "compl": 23391, "complete": 27527, "completely": 28655, "complex": 42290, "compliance": 33182, "component": 46362, "computer": 36327, "con": 3865, "concept": 38498, "concert": 34420, "cond": 29218, "condition": 27503, "conduct": 34746, "cone": 33666, "conf": 17075, "conference": 16459, "confidence": 22326, "config": 43163, "confirmed": 30677, "cong": 37519, "coni": 24392, "conn": 22854, "connect": 24501, "connected": 21618, "connection": 41011, "conom": 35706, "cons": 10998, "conscious": 22035, "conserv": 47906, "conservancy": 49273, "conservative": 36947, "consider": 33394, "console": 48028, "const": 20836, "constitutional": 41899, "construct": 42843, "consumer": 31666, "consuming": 27900, "cont": 10800, "contact": 32233, "contained": 40157, "container": 46367, "containing": 42480, "content": 10166, "context": 46796, "contin": 27887, "continental": 17308, "continue": 32757, "contract": 31938, "control": 17665, "controlled": 9947, "controller": 45294, "conv": 40474, "cook": 35190, "cooked": 35872, "cookie": 47884, "cool": 24336, "coon": 21705, "coord": 39219, "cop": 30551, "copy": 44273, "cor": 7215, "core": 7293, "corn": 30132, "correct": 36064, "corruption": 17897, "cos": 16254, "cost": 10111, "cosystem": 42451, "cot": 22921, "cott": 17083, "could": 17304, "count": 11432, "counter": 24774, "country": 12659, "cour": 36644, "course": 21282, "court": 8953, "cover": 20401, "covered": 24914, "cow": 31645, "cox": 23085, "cp": 30216, "cpp": 49317, "cpu": 49345, "cr": 8344, "craft": 17536, "crafted": 29496, "crazy": 35852, "cre": 34868, "cream": 34806, "creat": 25761, "create": 32845, "created": 27367, "creation": 39025, "creator": 37652, "credit": 32598, "creen": 37346, "crete": 30834, "crew": 38774, "cribed": 38131, "crim": 33510, "crime": 18608, "criminal": 34928, "cript": 26083, "cription": 33112, "criptions": 43324, "crit": 35031, "critical": 25398, "cro": 23324, "croft": 26357, "crop": 31581, "cross": 15329, "crow": 43520, "cru": 32023, "cry": 36896, "crypt": 44675, "cs": 11365, "css": 48408, "csv": 49079, "ct": 3894, "ctic": 20069, "ctica": 46287, "ction": 14970, "ctions": 16849, "ctive": 32740, "ctl": 47074, "ctor": 24427, "ctors": 38636, "ctory": 45271, "ctr": 47732, "ctrl": 49355, "ctuary": 35584, "cture": 32526, "ctx": 49575, "cu": 16312, "cube": 32788, "cue": 35249, "cul": 13300, "cular": 32188, "culated": 41244, "culation": 28169, "cule": 38884, "cules": 46285, "culosis": 45229, "cult": 38609, "cultural": 27952, "culture": 27238, "culus": 46283, "cum": 30639, "cup": 21033, "cur": 17742, "currency": 34370, "current": 28311, "currently": 38501, "cus": 26797, "cussion": 33825, "custom": 31458, "cut": 8267, "cuts": 36573, "cutting": 17956, "cv": 38635, "cy": 4469, "cycl": 19297, "cycle": 23060, "cycles": 43407, "cyclop": 47495, "cyclopedia": 49484, "cyl": 29046, "cz": 10608, "c\u00c3\u00a9": 12695, "d": 417, "dB": 45189, "dL": 45921, "da": 6106, "dad": 27398, "daily": 16624, "dain": 27713, "dal": 20375, "dale": 5610, "dam": 15177, "damage": 45977, "dan": 14856, "danger": 29651, "daq": 5946, "dar": 20490, "dark": 30423, "dash": 42360, "dat": 36146, "data": 23687, "database": 48094, "date": 10672, "dated": 26064, "dates": 19718, "dating": 40651, "daughter": 26243, "day": 1208, "dayName": 50069, "days": 7033, "db": 33845, "dc": 34836, "dd": 16134, "dden": 39893, "dding": 42753, "dds": 47286, "de": 2794, "dead": 18758, "deal": 14861, "deals": 45794, "death": 24483, "deb": 25607, "debian": 49349, "debug": 49208, "dec": 11127, "deck": 38106, "decl": 32639, "ded": 17452, "deen": 42768, "deep": 13637, "def": 9232, "default": 43234, "defense": 21409, "define": 47634, "defined": 30764, "definition": 38835, "deg": 28904, "degree": 5743, "del": 10273, "delay": 46696, "delete": 46888, "dem": 12789, "demand": 15509, "democracy": 30814, "democratic": 38566, "demon": 34084, "den": 3898, "density": 37373, "dep": 17272, "depend": 45950, "dependent": 30231, "depending": 43548, "depth": 11583, "der": 3624, "derived": 38871, "des": 10067, "desc": 45091, "described": 30343, "description": 42739, "design": 23414, "designed": 23866, "desktop": 47912, "despite": 36895, "dest": 31549, "destroy": 42742, "destruct": 37808, "det": 17701, "detail": 41467, "details": 45839, "determination": 32962, "dev": 20068, "develop": 34335, "developed": 28176, "development": 27013, "device": 42005, "devices": 44326, "df": 36807, "dfx": 49822, "dh": 16593, "di": 7506, "diagn": 37445, "dial": 43735, "dict": 25867, "did": 24001, "didn": 31934, "die": 18554, "dies": 38707, "diff": 32278, "different": 37251, "dig": 20098, "digit": 10289, "digital": 29563, "digy": 37243, "dim": 37152, "dimension": 47987, "dimensional": 23944, "din": 27228, "dinand": 47925, "ding": 11303, "dir": 41292, "direct": 27555, "directed": 25706, "direction": 42184, "director": 19709, "directory": 48626, "dirty": 40087, "dis": 7779, "disable": 48986, "disabled": 46241, "disc": 18909, "disciplinary": 32231, "discrimination": 34635, "disk": 47340, "display": 34045, "displayText": 50085, "dist": 17165, "distance": 27861, "dit": 33307, "div": 26037, "division": 29418, "dj": 26029, "dk": 43357, "dl": 30469, "dll": 48962, "dm": 43604, "dn": 26812, "do": 5016, "doc": 37447, "docker": 49335, "docs": 44071, "doctor": 44914, "doctoral": 33841, "document": 43017, "documented": 37230, "does": 26692, "doesn": 34318, "dog": 16319, "dogs": 20226, "doi": 39159, "doing": 30012, "dollar": 11447, "dom": 12623, "domain": 46400, "dominated": 23169, "doms": 46619, "don": 7254, "donald": 24139, "done": 27057, "door": 11219, "doors": 31618, "dor": 32649, "dos": 19202, "dose": 35238, "dot": 33369, "double": 14582, "down": 3955, "download": 41536, "downs": 20650, "dozen": 28680, "dp": 43923, "dq": 47518, "dr": 10232, "dra": 44842, "draft": 35593, "dragon": 46933, "draw": 24686, "drawn": 31798, "dream": 24009, "dress": 36220, "dri": 42552, "drive": 19306, "driven": 9756, "driver": 32265, "drivers": 44525, "driving": 10241, "drm": 49167, "dro": 39566, "drop": 32597, "dropping": 27471, "drops": 40377, "drug": 23310, "dry": 16864, "ds": 11622, "dt": 38585, "du": 6588, "duc": 45882, "ducers": 24091, "duct": 43518, "duction": 42705, "due": 17193, "duino": 49428, "dule": 35401, "dullah": 46410, "dump": 46593, "duration": 41218, "during": 37460, "dust": 42910, "duty": 15593, "dx": 46106, "dy": 7180, "dyl": 48541, "dylib": 49973, "e": 242, "ea": 13184, "each": 37782, "ead": 19928, "eah": 41414, "eal": 18696, "ealing": 27638, "ealous": 30783, "eals": 44933, "ean": 12001, "eanor": 45972, "ear": 4352, "earable": 48819, "earance": 39122, "earances": 45715, "earch": 48114, "earcher": 42723, "earchers": 46028, "eared": 24845, "earing": 10852, "early": 23099, "earned": 23231, "ears": 12541, "earth": 25581, "eas": 29358, "east": 16843, "easy": 36187, "eat": 21046, "eating": 29100, "eatured": 36609, "eatures": 49847, "eaturing": 48373, "eb": 3209, "ebin": 49088, "ebook": 46762, "ebra": 31898, "ebted": 46424, "ebus": 47604, "ec": 3204, "eca": 15366, "ecake": 35427, "ecast": 34989, "ecause": 49414, "ecd": 48510, "ech": 7529, "eches": 43865, "echo": 45276, "ecided": 46041, "eco": 30701, "econom": 28310, "economic": 12063, "ect": 9041, "ectar": 39459, "ected": 21722, "ection": 20970, "ective": 38089, "ectomy": 36291, "ector": 26997, "ecycle": 35296, "ed": 196, "edIn": 49556, "eda": 14444, "edar": 29895, "eday": 43975, "edd": 13093, "edded": 42495, "eddy": 25561, "ede": 12820, "eded": 8652, "eden": 23714, "eder": 11736, "ederal": 40316, "ederation": 41447, "edes": 34567, "edge": 14724, "edged": 35582, "edi": 19237, "edia": 24220, "edience": 46946, "edient": 47293, "edin": 25590, "eding": 13118, "edit": 45486, "edited": 40137, "edition": 31855, "editor": 32636, "edly": 38441, "edo": 26265, "edom": 45556, "eds": 12080, "edu": 13452, "educ": 36188, "educated": 26414, "education": 30746, "edy": 14425, "ee": 1942, "eed": 10247, "eeds": 32022, "eeee": 45835, "eeks": 30384, "eele": 34848, "eely": 22066, "eem": 33386, "een": 14102, "eenth": 43169, "eeper": 34832, "eer": 22719, "eering": 28829, "eers": 32596, "ees": 5421, "eez": 27719, "ef": 4550, "efe": 25793, "efeated": 43203, "efer": 25337, "eff": 29678, "effect": 26715, "effective": 20278, "effects": 38375, "effic": 38641, "efficiency": 33939, "efficient": 24645, "efficients": 49785, "efined": 38716, "eful": 21954, "efully": 24358, "eg": 3733, "ega": 22720, "egal": 45479, "eger": 44091, "egg": 38299, "egu": 33870, "eh": 14897, "ei": 13862, "eight": 19491, "either": 40053, "ek": 1951, "eka": 16146, "eker": 22193, "eki": 35520, "eking": 25558, "eks": 15390, "el": 523, "ela": 6658, "elaide": 44990, "eland": 9999, "elcome": 42557, "ele": 6902, "elect": 6930, "elected": 15672, "election": 6414, "electric": 18986, "eled": 13587, "element": 46168, "eless": 13802, "elf": 24973, "elfare": 43528, "elfth": 39663, "eli": 20274, "elia": 30922, "elight": 23515, "eligible": 40581, "elin": 29097, "eline": 7012, "elines": 38630, "eling": 10244, "elist": 47536, "ell": 1641, "ella": 8461, "ellar": 40909, "ellation": 33924, "elle": 6591, "ellect": 45255, "ellectual": 44611, "elled": 16349, "ellen": 12128, "eller": 15098, "ellery": 16811, "elli": 13750, "ellig": 37448, "elligence": 45852, "elligent": 42732, "elling": 14139, "ello": 10913, "ellow": 33796, "ells": 17150, "elly": 10917, "elman": 16955, "eln": 27292, "elo": 13961, "elong": 30432, "elope": 26889, "els": 2507, "else": 44617, "elsen": 35573, "elsh": 44870, "elsius": 46970, "elson": 16475, "elt": 6607, "elta": 25412, "elve": 41120, "elvet": 48127, "em": 991, "ema": 8557, "emade": 43598, "email": 10555, "emaker": 18362, "emale": 49307, "eman": 5649, "emark": 37088, "emate": 23897, "emb": 20506, "embed": 35804, "embedreportprint": 50171, "ember": 22542, "eme": 17185, "emed": 33578, "emen": 15035, "ement": 6285, "ements": 11217, "emer": 17615, "emet": 44916, "emetery": 49299, "emi": 10613, "emia": 23249, "emic": 14414, "emies": 26804, "emin": 20554, "eming": 33303, "emis": 41875, "emn": 43298, "emo": 29587, "emon": 34344, "emonic": 45656, "emonium": 48144, "emort": 49603, "emouth": 14393, "emp": 37655, "emphasis": 44743, "empl": 33037, "employ": 32198, "employed": 28326, "employment": 37011, "emporary": 45732, "empt": 15318, "emption": 41731, "empty": 41486, "ems": 17752, "emy": 27171, "en": 225, "ena": 4242, "enable": 30743, "enabled": 23949, "ename": 45838, "enance": 37469, "enaries": 47934, "enario": 34135, "enary": 19985, "enberg": 13741, "enburg": 20533, "enc": 14210, "ence": 4086, "enced": 19867, "encer": 24077, "encers": 22691, "ences": 8457, "ench": 24071, "encia": 16446, "encies": 14768, "encing": 17725, "encrypted": 46706, "ency": 6761, "end": 1397, "enda": 15205, "endale": 19725, "endant": 25113, "endants": 35845, "endar": 29702, "endars": 47407, "endas": 44395, "ende": 14537, "ended": 6228, "ender": 7232, "endered": 36318, "enders": 13563, "endez": 22192, "endi": 19724, "endiary": 48314, "endif": 49741, "ending": 4345, "endish": 39460, "endium": 45750, "endix": 45392, "endment": 40720, "endo": 12454, "endon": 27609, "endor": 25883, "endra": 16496, "ends": 8845, "endum": 44428, "ene": 2552, "ened": 4490, "eneg": 47920, "enegger": 47129, "enei": 28918, "enemy": 41320, "ener": 5777, "energy": 18261, "eners": 31469, "enery": 37897, "enes": 39268, "eness": 14186, "enez": 16411, "enezuel": 41025, "enf": 40497, "enforcement": 35399, "enfranch": 48717, "eng": 3314, "enge": 20526, "engeance": 49298, "enged": 34187, "enger": 24290, "engers": 20434, "enges": 33618, "engine": 23403, "engineering": 36904, "english": 47120, "ength": 49426, "engu": 38381, "enh": 15477, "enhagen": 48012, "eni": 11273, "enic": 26490, "ening": 4226, "enium": 44998, "enko": 19536, "enment": 48606, "enn": 4734, "enna": 18974, "enne": 18504, "ennes": 24800, "ennett": 35599, "ennial": 13952, "ennis": 28828, "enny": 11867, "eno": 14511, "enos": 36048, "enough": 38597, "ens": 1290, "ensable": 47467, "ensation": 42312, "ense": 9401, "ensed": 25144, "ensen": 23891, "enser": 43897, "enses": 21526, "ensible": 31452, "ensibly": 46598, "ensical": 48163, "ensing": 21591, "ension": 17699, "ensional": 49220, "ensions": 19783, "ensis": 45353, "ensitive": 43634, "ensitivity": 40275, "ensity": 40904, "ensive": 17355, "enson": 13919, "ensor": 35354, "enstein": 27574, "ensual": 35813, "ensus": 28376, "ent": 1342, "enta": 16586, "ental": 13589, "entanyl": 40276, "entary": 39494, "ente": 8530, "ented": 9663, "enter": 11798, "enth": 28249, "enthal": 36837, "ential": 12986, "entially": 16722, "entials": 40288, "entimes": 32383, "entin": 40838, "enting": 28623, "ention": 19774, "entious": 40058, "entity": 46317, "entle": 44667, "ently": 7240, "ento": 28594, "enton": 14492, "entric": 44581, "entry": 12595, "ents": 4189, "enture": 20537, "enty": 24997, "enum": 46284, "env": 41124, "environment": 37555, "eny": 18199, "enz": 16481, "enza": 26450, "enzie": 15847, "eon": 27186, "eor": 43746, "eous": 42461, "ep": 2462, "epad": 45922, "epend": 26769, "ependence": 41575, "ependent": 48066, "eper": 30816, "eph": 35699, "eping": 24320, "episode": 33319, "eport": 24964, "eps": 26378, "ept": 44145, "eq": 41456, "equ": 8198, "equal": 30349, "equality": 43119, "equipped": 29467, "er": 254, "era": 3843, "eral": 6653, "erala": 45789, "erald": 26755, "erate": 45329, "erb": 31679, "erc": 11180, "ercise": 42118, "erd": 25902, "ere": 2816, "ered": 3215, "eredith": 23178, "eree": 25898, "erek": 37623, "erella": 45414, "eren": 8663, "erence": 24935, "erences": 36806, "erenn": 45904, "erent": 21120, "erential": 44125, "ereo": 41312, "erer": 7160, "erers": 16885, "erest": 44488, "eret": 28290, "erey": 16916, "erg": 11249, "ergic": 44858, "ergus": 39610, "erguson": 46395, "ergy": 34043, "eri": 16367, "eria": 6971, "erial": 48033, "eric": 41675, "erick": 23933, "erie": 23834, "eries": 9709, "ering": 2961, "erion": 45677, "erity": 44946, "erk": 13760, "erker": 46739, "erm": 8362, "erman": 7043, "ermanent": 47958, "ermott": 18737, "ern": 3281, "ernal": 45738, "ername": 48285, "ernand": 41208, "ernandez": 43360, "ernaut": 34699, "ernel": 48954, "ernels": 47909, "erness": 44103, "erning": 37835, "erno": 31564, "ero": 5160, "eros": 22070, "erous": 33961, "err": 14385, "erred": 23474, "errilla": 46148, "error": 44223, "errors": 48487, "erry": 11228, "ers": 268, "ersed": 40444, "ersen": 26655, "ership": 39953, "ersion": 39565, "ersive": 45809, "erson": 4277, "ert": 2399, "ertain": 23801, "ertation": 48891, "ertility": 41748, "erto": 23880, "ertodd": 50030, "erton": 14347, "erv": 8649, "erva": 41430, "ervation": 26481, "ervative": 41531, "ervatives": 37376, "erve": 14477, "erved": 13539, "erver": 39540, "erves": 22812, "erville": 14132, "erving": 25373, "ery": 4270, "eryl": 25309, "es": 293, "esa": 18382, "esame": 27476, "esan": 28656, "esar": 19115, "esc": 10338, "escal": 25759, "escap": 41274, "escape": 46230, "escent": 42473, "escription": 49934, "ese": 4468, "esh": 4891, "esi": 20046, "esian": 44871, "esides": 46463, "esis": 25960, "esity": 46461, "esley": 36664, "esm": 47263, "esome": 38297, "eson": 21564, "esp": 21359, "especially": 20345, "espie": 47712, "esque": 25732, "ess": 3361, "essa": 15620, "essage": 49528, "esse": 19616, "essed": 18502, "essee": 39941, "essel": 28633, "essen": 24439, "essential": 23693, "essert": 38979, "esses": 38926, "essim": 47229, "essing": 29905, "ession": 21308, "essional": 38418, "essions": 27366, "essler": 40608, "essment": 38170, "esson": 24711, "essor": 33728, "essors": 43592, "est": 990, "esta": 17838, "establish": 30248, "established": 22234, "establishment": 30439, "estamp": 48571, "estate": 29359, "estation": 24660, "este": 13967, "estead": 23628, "ested": 11718, "esteem": 29704, "ester": 8939, "estern": 47723, "esters": 37354, "esthes": 42466, "esthesia": 43729, "esthetic": 38248, "estial": 48806, "estic": 23862, "estinal": 49096, "estine": 40164, "esting": 24472, "estival": 30474, "eston": 19927, "estone": 18873, "estones": 41878, "estro": 24969, "ests": 10092, "esty": 27668, "estyle": 13986, "estyles": 48143, "esville": 25219, "esy": 43659, "et": 594, "eta": 8152, "etary": 33267, "etc": 42624, "etch": 29094, "etchup": 36862, "ete": 9306, "eteen": 39112, "eteenth": 45248, "eter": 5906, "eteria": 46701, "etermin": 39938, "etermination": 45960, "etermined": 25598, "eters": 20413, "eth": 4774, "ethe": 36980, "etheless": 49539, "ether": 17517, "etheus": 48208, "ethical": 45368, "ethnic": 38211, "ethy": 45605, "ethyl": 30298, "ethyst": 46867, "etic": 15557, "etically": 36454, "etics": 32148, "eties": 25620, "etime": 16093, "etimes": 41265, "eting": 16382, "etition": 37258, "etitive": 40763, "eto": 15758, "eton": 30206, "etooth": 44969, "etr": 17985, "etric": 25286, "etrical": 37776, "etry": 21262, "ets": 2580, "etsk": 46171, "etsu": 44146, "etsy": 46450, "ett": 2645, "etta": 10464, "ette": 3398, "ettel": 14282, "etter": 24585, "ettes": 16683, "etti": 13238, "etting": 28618, "ettings": 48496, "ettle": 22286, "ettlement": 43058, "etts": 22527, "etus": 43161, "ety": 12637, "etz": 13126, "eu": 25171, "eur": 16235, "euro": 23286, "eus": 41728, "ev": 3623, "eva": 18590, "eval": 28017, "evaluate": 34516, "eve": 26707, "even": 12963, "event": 21680, "events": 28615, "ever": 6294, "everal": 49771, "every": 22466, "everyone": 37180, "everything": 31072, "evidence": 42655, "evil": 34727, "evin": 36937, "ew": 2753, "eware": 41909, "ewater": 24159, "eway": 10564, "eways": 33276, "ewitness": 30271, "ework": 31466, "eworks": 43919, "eworld": 44437, "eworthy": 41506, "ews": 10269, "ewski": 23522, "ex": 3463, "examination": 33198, "example": 46781, "exc": 34645, "except": 26837, "excluding": 34734, "exclusive": 38347, "exe": 45911, "exec": 22342, "execute": 48592, "exempt": 35531, "exist": 34632, "existence": 35445, "existent": 31453, "existing": 19865, "exit": 44054, "exp": 18793, "expected": 10162, "expensive": 42203, "exper": 26786, "expl": 23242, "export": 38099, "expr": 49479, "express": 37752, "expression": 42819, "ext": 16435, "external": 43166, "externalActionCode": 50178, "extra": 30842, "extreme": 34170, "extremely": 22754, "ey": 2981, "eye": 20668, "eyed": 17178, "eyes": 36078, "ez": 5841, "ezvous": 42057, "f": 506, "fa": 12010, "fab": 36636, "fac": 33492, "face": 9021, "facebook": 17635, "faced": 18172, "faces": 40289, "facing": 16891, "fact": 24905, "factor": 31192, "facts": 34487, "fail": 37694, "failed": 38323, "fair": 13500, "faith": 32118, "fake": 18169, "fal": 32783, "fall": 7349, "falls": 18055, "false": 22303, "fam": 27505, "family": 12368, "famous": 30688, "fan": 19302, "far": 15476, "fare": 17825, "farious": 48813, "farm": 19779, "fascist": 40506, "fashion": 36697, "fashioned": 22950, "fast": 16963, "fat": 19987, "father": 14891, "favorite": 38572, "fax": 26258, "fb": 36028, "fc": 25484, "fd": 37379, "fe": 7068, "feat": 42800, "feature": 44565, "features": 46076, "fect": 17706, "fecture": 29797, "fed": 21967, "fee": 33763, "feed": 18790, "feeding": 35151, "feel": 35702, "feet": 22023, "feld": 12706, "fell": 17195, "felt": 34204, "female": 31372, "femin": 41468, "fen": 22132, "fer": 6646, "ference": 23861, "ferred": 36267, "fest": 13936, "fet": 42109, "fetched": 37606, "few": 37492, "ff": 3145, "ffe": 25813, "ffect": 45700, "ffee": 38213, "ffen": 26127, "ffer": 23926, "fff": 48591, "ffff": 48748, "ffic": 22968, "fficiency": 45326, "fficient": 43788, "ffield": 43406, "ffiti": 43850, "fg": 41460, "fi": 9169, "fiction": 25175, "field": 1399, "fields": 21346, "fif": 41830, "fifth": 33030, "fig": 22699, "fight": 16695, "fighter": 32096, "fighters": 12163, "fighting": 17329, "fights": 43557, "figure": 23972, "figured": 39607, "fil": 18419, "file": 21710, "filename": 49451, "files": 42018, "fill": 29238, "filled": 13268, "film": 21928, "filter": 46617, "fin": 13597, "final": 6156, "finals": 7256, "financial": 24915, "find": 26559, "finder": 38116, "finding": 33791, "fine": 35093, "fing": 30097, "finger": 32297, "finished": 40544, "fire": 7051, "fired": 15361, "fires": 23668, "first": 9502, "fish": 9106, "fit": 14307, "fits": 30769, "fitted": 29043, "fitting": 22605, "five": 9579, "fix": 23032, "fixed": 43713, "fixes": 48044, "fl": 4825, "flag": 30160, "flags": 46760, "flake": 40727, "flame": 45992, "flash": 39837, "flat": 35429, "flation": 18613, "fle": 40307, "fledged": 30458, "fleet": 42952, "flex": 34739, "flies": 37085, "flight": 15801, "flix": 47274, "flo": 40693, "float": 46349, "floor": 19198, "flow": 19322, "flower": 22547, "flows": 17718, "flu": 33266, "flush": 47742, "fly": 19252, "flying": 28781, "fm": 40523, "fman": 30717, "fml": 49672, "fn": 42441, "fo": 21466, "focus": 36056, "focused": 12804, "fol": 22588, "fold": 12851, "folder": 48811, "folio": 18429, "folios": 47039, "folk": 35363, "follow": 28481, "font": 42060, "foo": 48359, "food": 13193, "foot": 2917, "football": 11107, "footed": 26620, "for": 1990, "force": 9091, "forced": 25258, "forcement": 46637, "forcer": 39727, "forces": 34532, "forcing": 43837, "ford": 1891, "fore": 13364, "foreign": 35229, "foreseen": 47765, "forest": 28236, "forestation": 45317, "forge": 47822, "fork": 34886, "form": 3899, "formance": 47196, "format": 34609, "formation": 26941, "formed": 10312, "former": 22098, "formerly": 30520, "forming": 11847, "forms": 33334, "fort": 12322, "fortable": 38093, "forth": 17030, "forts": 36568, "fortunately": 45779, "fortune": 47600, "forum": 44424, "forums": 48621, "forward": 16135, "found": 19256, "foundation": 36282, "founded": 17724, "founder": 7295, "foundland": 48799, "four": 10231, "fourth": 35704, "fox": 31587, "fp": 46004, "fps": 36151, "fr": 12997, "frac": 48877, "fram": 42401, "frame": 26061, "frames": 42786, "framework": 48019, "fre": 18178, "fred": 20994, "free": 3743, "freedom": 38608, "frequency": 36274, "fresh": 34794, "frey": 16127, "fried": 21209, "friend": 18028, "friendly": 6928, "friends": 33601, "frog": 36487, "from": 7761, "front": 9289, "fruit": 30929, "fs": 17884, "ft": 2543, "ften": 34581, "fter": 23782, "fters": 33464, "ftime": 40749, "fts": 21811, "fty": 44106, "fu": 23359, "fuck": 44412, "fuel": 20118, "ful": 2650, "full": 16320, "fully": 6459, "fulness": 21843, "fun": 18317, "func": 48901, "function": 35435, "functional": 38922, "fund": 13858, "funded": 11856, "funding": 29843, "fur": 25937, "furt": 45464, "fusc": 48996, "future": 21290, "fw": 44860, "fx": 44830, "fy": 24382, "g": 571, "ga": 2538, "gaard": 25039, "gado": 25880, "gae": 34211, "gage": 42307, "gain": 38654, "gal": 9487, "galitarian": 49554, "gall": 30322, "gallery": 41818, "gam": 32959, "game": 2670, "gamer": 45864, "games": 34732, "gaming": 43129, "gan": 3494, "gang": 21251, "gans": 37110, "gap": 29183, "gar": 6276, "gard": 20474, "gars": 14468, "gart": 22739, "gary": 25557, "gas": 16306, "gat": 30605, "gate": 7357, "gay": 22019, "gb": 19562, "gc": 42406, "gd": 27122, "gdala": 49538, "ge": 1899, "geant": 47726, "gear": 34020, "gebra": 47097, "ged": 4462, "gee": 25601, "geist": 39994, "gel": 24612, "gem": 23922, "gement": 43790, "gements": 41330, "gemony": 48698, "gen": 4138, "gence": 31829, "gencies": 45829, "gency": 29377, "gender": 29967, "gener": 20557, "general": 15841, "generated": 21842, "generation": 11092, "generic": 47663, "genic": 44131, "genre": 44205, "gent": 13907, "gently": 47818, "geon": 20989, "geoning": 45969, "geons": 37525, "ger": 2403, "gerald": 47653, "gered": 40927, "geries": 46381, "gers": 7188, "gery": 21712, "ges": 5641, "gest": 10403, "get": 6460, "getic": 46151, "gets": 30900, "gettable": 46280, "getting": 31315, "gew": 23740, "gewater": 43208, "gex": 45767, "gey": 13817, "gg": 6149, "gged": 35546, "gger": 36690, "ggie": 30210, "ggies": 44279, "gging": 23941, "ggle": 45619, "ggles": 43312, "ggy": 25958, "gh": 4147, "gha": 35202, "ghai": 43673, "ghan": 5158, "ghazi": 49050, "ghost": 41796, "gi": 15696, "gian": 42859, "gie": 25004, "giene": 41866, "gif": 47324, "gil": 24175, "gin": 11405, "ging": 3923, "gins": 38341, "ginx": 46842, "gio": 27591, "girl": 19347, "girlfriend": 22943, "girls": 26778, "git": 20901, "github": 48340, "give": 26650, "given": 31699, "giving": 18116, "gl": 7210, "glas": 39473, "glass": 19487, "glers": 43060, "gling": 46735, "global": 9424, "glomer": 49651, "gly": 35799, "gm": 41502, "gmail": 14551, "gment": 10757, "gments": 30237, "gn": 16993, "gnu": 49022, "go": 2977, "goal": 12697, "gob": 46201, "god": 31858, "goers": 15068, "going": 12891, "gold": 16472, "gom": 44684, "gomery": 41760, "gon": 14601, "gone": 28636, "goo": 43391, "good": 8396, "google": 39367, "gor": 26084, "gorith": 45909, "gorithm": 47549, "got": 22371, "gotten": 35095, "gov": 7354, "govern": 32019, "government": 11455, "governmental": 21494, "govtrack": 49941, "gow": 32770, "gp": 44191, "gpu": 49375, "gr": 6504, "gra": 33822, "grab": 27300, "grad": 18252, "gradation": 47055, "grade": 8425, "graded": 9471, "grades": 25579, "gradient": 49433, "grading": 40010, "graduate": 30434, "grain": 42010, "gram": 28526, "gran": 36799, "grand": 11377, "graph": 44143, "grass": 17282, "grave": 28348, "gravity": 43687, "gray": 42692, "gre": 28819, "greSQL": 48041, "great": 12338, "green": 12354, "greg": 40745, "gregation": 46607, "gren": 22470, "gres": 43785, "gress": 39468, "gression": 42223, "gressive": 39292, "grey": 43268, "grid": 25685, "grim": 44592, "gro": 15821, "gross": 28961, "ground": 13981, "grounds": 20308, "group": 13839, "groupon": 49730, "groups": 36378, "grow": 36058, "growing": 11600, "grown": 20629, "growth": 14596, "gru": 34497, "gs": 15453, "gt": 19377, "gu": 5521, "guard": 12984, "guards": 26484, "gue": 28338, "gui": 42299, "guide": 43415, "guided": 33935, "gun": 8215, "guns": 39428, "gur": 23495, "guy": 29528, "guyen": 48460, "gy": 4740, "gyn": 29415, "gypt": 44724, "gz": 45328, "h": 298, "ha": 1999, "haar": 45735, "hab": 13899, "habi": 45220, "hack": 41040, "had": 12186, "hai": 30279, "hair": 34019, "haired": 29542, "hak": 28832, "hal": 11124, "half": 4809, "hall": 12023, "halla": 47628, "ham": 1908, "hammad": 44800, "hammer": 32404, "han": 4134, "hand": 4539, "handed": 9267, "handedly": 34946, "hander": 8887, "handle": 26628, "handled": 42536, "handler": 45291, "hands": 34055, "hang": 24610, "hani": 36424, "hao": 42678, "hap": 24616, "happy": 27333, "haps": 34398, "har": 4759, "hard": 9635, "hardt": 15553, "hare": 33719, "hari": 32390, "harm": 22417, "hart": 11567, "has": 7333, "hash": 25903, "hat": 8849, "hate": 33990, "hatt": 16001, "hattan": 45672, "haul": 23424, "haus": 19493, "haust": 41423, "have": 11990, "haven": 15159, "having": 37167, "haw": 11900, "hawk": 13197, "hawks": 22906, "hazard": 43217, "hd": 35905, "he": 700, "hea": 26343, "head": 3628, "headed": 19279, "header": 24419, "headers": 47288, "heading": 29086, "heads": 16560, "health": 14388, "healthy": 33353, "heard": 42225, "heart": 12690, "hearted": 18948, "heartedly": 34089, "heast": 44085, "heastern": 30217, "heat": 25978, "heavy": 18888, "hed": 4183, "heddar": 32323, "hedon": 48917, "hedral": 46668, "hee": 14603, "heed": 19381, "heet": 25148, "hei": 31376, "heid": 30071, "height": 37009, "heim": 10436, "heimer": 17905, "heit": 24212, "hel": 4393, "held": 11706, "helial": 44828, "hell": 20030, "helle": 28459, "hello": 42891, "helm": 45663, "help": 19178, "helps": 44590, "hem": 9506, "hemat": 47160, "hematic": 47405, "hematically": 41847, "hement": 47364, "hemer": 40557, "hemoth": 32358, "hemy": 47065, "hen": 2457, "hend": 21150, "hene": 29089, "heng": 31075, "henko": 28950, "hens": 27859, "hent": 37754, "heny": 27168, "heon": 37254, "her": 1843, "here": 10859, "hered": 16375, "herence": 40584, "herent": 33591, "herer": 38728, "heres": 29492, "heric": 41481, "herical": 48152, "hern": 16494, "hero": 19034, "herry": 34159, "hers": 10705, "herty": 14076, "hes": 5065, "hesda": 48492, "heses": 47336, "hesion": 44231, "hesis": 35571, "hesive": 45064, "hess": 38002, "hest": 20921, "hester": 45602, "het": 4626, "hetamine": 45634, "heter": 31995, "hetic": 18667, "hetical": 43053, "hetically": 31667, "hetics": 34680, "hett": 14698, "hetti": 44215, "hetto": 42670, "hew": 16152, "hews": 22168, "hex": 43726, "hey": 12229, "hh": 36646, "hhh": 45851, "hhhh": 45570, "hi": 3592, "hib": 25068, "hiba": 20575, "hibit": 45529, "hibited": 43194, "hibition": 44161, "hid": 44122, "hidden": 37392, "hide": 37265, "hift": 46853, "hig": 43377, "high": 3530, "higher": 40499, "highest": 21810, "highly": 29003, "hill": 9583, "hillary": 48926, "him": 24770, "hin": 11040, "hing": 8223, "hip": 4128, "hips": 7903, "hire": 6867, "hiro": 43008, "hirt": 28517, "his": 12724, "hist": 32001, "historic": 36556, "history": 37283, "hit": 9591, "hitting": 25457, "hl": 11639, "hler": 23793, "hm": 13492, "hma": 36050, "hn": 10245, "hner": 34127, "ho": 5410, "hod": 24615, "hoe": 23712, "hof": 27327, "hoff": 22701, "hog": 30755, "hol": 9649, "hold": 4208, "holder": 14074, "holders": 7509, "holding": 25176, "hole": 11616, "holes": 31670, "holiday": 40580, "holm": 27967, "holy": 44127, "hom": 24792, "home": 8361, "hon": 16769, "hood": 8489, "hook": 33016, "hooting": 41086, "hop": 9547, "hops": 39294, "hor": 13562, "horn": 20968, "horse": 19471, "hospital": 40179, "host": 11438, "hot": 10120, "hots": 43838, "hou": 24181, "houn": 25446, "hound": 29344, "hour": 4509, "hours": 21719, "house": 3138, "houses": 18917, "housing": 27710, "hov": 44159, "hovah": 49983, "hover": 47741, "how": 9178, "hower": 47285, "hp": 24548, "hr": 5039, "hra": 20101, "hran": 43966, "href": 43386, "hs": 15354, "ht": 6083, "htaking": 47141, "htar": 19654, "htm": 40202, "html": 6660, "htt": 49491, "http": 8166, "https": 13082, "hu": 6455, "hua": 15363, "hub": 31002, "huge": 30214, "hum": 18257, "human": 19003, "humane": 30523, "humans": 44734, "hun": 18458, "hung": 26677, "hunt": 22045, "hunter": 41123, "hur": 14898, "hurst": 16279, "hus": 25134, "husband": 21301, "hw": 30826, "hy": 11108, "hya": 18321, "hyd": 30420, "hyde": 47961, "hyp": 33027, "hyper": 44039, "hz": 39569, "i": 118, "iHUD": 50076, "iOS": 45773, "iPhone": 43688, "ia": 493, "iability": 34337, "iable": 13315, "iably": 37217, "iac": 9504, "iae": 42887, "iage": 48598, "iago": 36649, "iah": 7138, "iak": 20082, "ial": 2617, "ially": 11416, "ials": 9532, "iam": 6009, "iameter": 46147, "iami": 40879, "iamond": 44318, "ian": 811, "iana": 8878, "iance": 9862, "iances": 29818, "iane": 26789, "iang": 14607, "iani": 20909, "iann": 30265, "iannopoulos": 48141, "iano": 5472, "ians": 2071, "iant": 9488, "iants": 40679, "iao": 17530, "iar": 12202, "iard": 27131, "iaries": 41608, "iary": 17174, "ias": 5003, "iasco": 47337, "iasis": 32716, "iasm": 43586, "iat": 11284, "iate": 10599, "iated": 15253, "iates": 31821, "iating": 16158, "iation": 16546, "iations": 48228, "iator": 30353, "iatric": 21303, "iatrics": 38246, "iatures": 46720, "iatus": 48822, "iaz": 22517, "iazep": 44589, "ib": 1452, "iba": 15577, "ibaba": 44345, "ibal": 33580, "iban": 33372, "iband": 47083, "ibble": 42958, "ibe": 18359, "ibel": 31477, "iber": 9760, "iberal": 45246, "ibi": 17310, "ibia": 18739, "ibilities": 38935, "ibility": 12203, "ibl": 41074, "ible": 4748, "ibles": 13352, "ibli": 40986, "iblical": 47825, "ibling": 46514, "iblings": 44271, "ibliography": 47985, "ibly": 19031, "ibo": 18232, "ibr": 11804, "ibrarian": 32916, "ibraries": 47437, "ibrary": 44138, "ibu": 16343, "ibur": 28959, "ibus": 27587, "ic": 636, "ica": 2426, "icable": 26092, "icably": 31249, "icago": 42938, "ical": 3569, "ically": 3435, "icals": 13764, "ican": 12657, "icans": 37260, "icas": 31895, "icate": 14263, "icated": 5554, "icates": 23020, "icating": 13659, "ication": 14086, "ications": 29758, "icative": 41983, "icator": 30931, "icators": 39014, "icc": 31974, "ice": 2463, "iced": 12646, "icent": 27909, "iceps": 34894, "icer": 29370, "ices": 6355, "icester": 40755, "ich": 1725, "ichael": 25554, "iche": 11529, "ichen": 28902, "ichever": 42063, "ichi": 20000, "ichick": 47790, "ichita": 47011, "icho": 44419, "icht": 5398, "ici": 13850, "icia": 16488, "icial": 23092, "ician": 14932, "icians": 17197, "iciary": 45701, "icidal": 42743, "icide": 15772, "icides": 31048, "iciency": 33065, "icient": 35056, "icing": 16483, "icio": 15025, "icion": 18920, "icious": 16003, "icip": 24695, "icipated": 45500, "icism": 24966, "icist": 39302, "icit": 17022, "icity": 24414, "ick": 1758, "icka": 40946, "icked": 14851, "icken": 13552, "icker": 13917, "ickers": 23601, "icket": 8638, "ickets": 8586, "ickey": 23988, "icking": 10176, "ickle": 33863, "ickr": 45505, "icks": 8370, "ickson": 17896, "icky": 14963, "icle": 11317, "icles": 20846, "ico": 2684, "icol": 26609, "icon": 17505, "icone": 44327, "icons": 46043, "icro": 46473, "icrobial": 40467, "ics": 2857, "ict": 11726, "icted": 19799, "icter": 49184, "iction": 26579, "ictional": 41247, "ictionary": 48183, "ictions": 19047, "ictive": 37601, "icts": 29421, "icular": 21953, "icularly": 45555, "icult": 28075, "icultural": 33174, "iculture": 31685, "iculty": 48284, "icum": 35753, "icus": 31913, "icut": 43552, "icy": 24363, "icycle": 39943, "icz": 33630, "id": 808, "ida": 4347, "idable": 47551, "idad": 8843, "idae": 46780, "idal": 11934, "idan": 34343, "idas": 19926, "idate": 32890, "idated": 31965, "idates": 24143, "idation": 32090, "idav": 46121, "iday": 21746, "idays": 32904, "idd": 6502, "idden": 41686, "idding": 27346, "iddle": 17993, "iddled": 39674, "iddler": 40148, "iddles": 40741, "iddling": 36651, "iddy": 25196, "ide": 1949, "ided": 8598, "idel": 22088, "idelines": 43859, "idelity": 19415, "idem": 42896, "iden": 12145, "idence": 17444, "idences": 31688, "idency": 41059, "ident": 8009, "idental": 27350, "identally": 24118, "idential": 32543, "identified": 23788, "idently": 39964, "idents": 22612, "ideo": 44234, "ideon": 48258, "ideos": 47586, "idepress": 48346, "ider": 5326, "idered": 21732, "iders": 8936, "ides": 4376, "ideshow": 17946, "idespread": 38327, "idge": 15379, "idges": 42839, "idget": 20356, "idi": 12451, "idia": 40238, "idian": 32707, "idine": 40314, "iding": 8231, "idious": 43964, "idis": 22831, "idity": 35714, "idium": 38081, "ido": 6005, "idon": 38311, "ids": 7823, "idth": 47309, "idy": 21984, "ie": 324, "iece": 39426, "ied": 2550, "ief": 14134, "ieft": 31916, "ieg": 16723, "iege": 45245, "iegel": 26082, "iel": 5255, "ield": 8363, "ielding": 22613, "iem": 9173, "ien": 2495, "ience": 11465, "ienced": 33582, "iences": 27797, "iencies": 18828, "iency": 33625, "ienne": 21302, "iens": 27187, "ient": 4843, "ients": 20676, "ier": 906, "iera": 16432, "ierce": 34029, "iere": 14116, "ieri": 14319, "ierra": 37511, "ierre": 41307, "ierrez": 48036, "iers": 4733, "iership": 30571, "iery": 38693, "ies": 918, "iesel": 34368, "iest": 7098, "iesta": 25865, "iet": 5810, "ietal": 44584, "ieth": 15036, "ieties": 29590, "iets": 46809, "iety": 25717, "ieu": 13627, "iev": 18421, "ieval": 47981, "ieve": 16637, "ieved": 36024, "iever": 38579, "ievers": 37290, "ieves": 30381, "ieving": 31794, "iew": 19420, "iewicz": 31735, "if": 1594, "ifa": 15247, "ifact": 46460, "ifacts": 48007, "ifax": 22119, "ife": 11819, "ifer": 14087, "iferation": 37551, "ifest": 42076, "ifestyle": 27210, "iff": 4822, "iffe": 28566, "ifference": 48486, "ifferent": 47314, "iffin": 31570, "iffs": 13980, "ifi": 16665, "ifiable": 21584, "ific": 8685, "ificant": 44358, "ificantly": 32333, "ificate": 43325, "ification": 5000, "ifications": 14868, "ifice": 39748, "ificent": 43160, "ificial": 37465, "ified": 3786, "ifier": 24072, "ifiers": 27368, "ifies": 10687, "ifix": 48121, "ifle": 30715, "ifled": 35276, "ifles": 41249, "ifling": 31542, "iflower": 35051, "iform": 38263, "iframe": 48363, "ift": 9417, "ifted": 19138, "ifter": 33211, "ifting": 17274, "ifts": 22833, "ifty": 22129, "iful": 16170, "ifully": 34717, "ify": 4591, "ifying": 4945, "ig": 1023, "iga": 11742, "igan": 6703, "igans": 40342, "igate": 24343, "igated": 21750, "igating": 31721, "igation": 18541, "igator": 21825, "igators": 36084, "ige": 7876, "igel": 36547, "igen": 8554, "igenous": 39695, "igent": 28207, "iger": 10168, "igers": 41581, "igg": 11702, "igger": 41956, "iggins": 36215, "iggle": 24217, "iggs": 14985, "iggurat": 49224, "igh": 8774, "igham": 45859, "ighed": 35046, "ight": 5971, "ighter": 24327, "ighters": 38361, "ighth": 19447, "ighthouse": 32488, "ighting": 31686, "ighton": 20684, "ights": 6183, "ighty": 25529, "igi": 25467, "igible": 41965, "igil": 40252, "igion": 43617, "igious": 36872, "igl": 27163, "igm": 35045, "igma": 34719, "igmat": 45319, "igmatic": 48244, "ign": 4932, "ignant": 35090, "igne": 25835, "igned": 9044, "igning": 35780, "ignment": 15645, "ignore": 47072, "ignt": 47544, "ignty": 45934, "igo": 12713, "igon": 32410, "igor": 24929, "igr": 23704, "igrant": 20593, "igrants": 24280, "igraph": 42073, "igrate": 38476, "igrated": 28844, "igration": 33836, "igree": 46673, "igroup": 11725, "igs": 15409, "igsaw": 40088, "igslist": 48535, "igue": 18351, "igun": 46850, "iguous": 41777, "igure": 47547, "ih": 4001, "ihad": 19284, "ihadi": 37226, "ihar": 33145, "ihara": 40573, "ihil": 46750, "ihilation": 46018, "ihu": 30247, "ii": 4132, "iii": 31917, "ij": 2161, "ija": 12733, "ijah": 44303, "iji": 18942, "ijing": 40049, "ijk": 18474, "ijn": 18787, "ijuana": 25491, "ik": 967, "ika": 4151, "ikan": 21880, "ikarp": 47169, "ikawa": 35701, "ike": 4348, "iked": 21101, "iken": 22966, "iker": 17625, "ikers": 24511, "ikes": 13349, "ikh": 18439, "ikhail": 48017, "iki": 8907, "iking": 26897, "ikini": 42550, "ikk": 21609, "iko": 9691, "iku": 11919, "ikuman": 50010, "iky": 42644, "il": 718, "ila": 4882, "ilage": 40331, "ilan": 35860, "iland": 24676, "ilant": 37682, "ilantro": 37931, "ilar": 16813, "ilated": 35521, "ilater": 47255, "ilateral": 16908, "ilaterally": 45931, "ilation": 29357, "ild": 9683, "ilda": 22561, "ilde": 30880, "ilded": 39288, "ildo": 44606, "ile": 1848, "ileaks": 47471, "iled": 6691, "ilee": 19016, "ileen": 25703, "ilege": 44210, "ileged": 33421, "iler": 10329, "ilers": 39256, "iles": 4755, "iless": 45179, "ilet": 34046, "iley": 9422, "ili": 4715, "ilia": 10990, "ilial": 48345, "ilian": 35373, "iliar": 40484, "iliary": 34114, "iliate": 43081, "iliated": 37220, "iliation": 26045, "ilib": 42345, "ilibrium": 47295, "ilic": 22586, "ilies": 28694, "ilight": 45100, "iling": 7022, "ilings": 47332, "ilingual": 41586, "ilion": 28396, "ilipp": 33465, "ilit": 12427, "ilitarian": 49121, "ilitary": 47863, "ilitating": 41160, "ilitation": 20825, "ilities": 42651, "ility": 13005, "ilk": 32832, "ill": 1873, "illa": 4699, "illac": 44719, "illance": 44672, "illard": 16445, "illary": 31867, "illas": 19485, "illation": 34775, "ille": 4061, "illed": 12146, "illegal": 32678, "iller": 8690, "illery": 24463, "illes": 22244, "illet": 39844, "illi": 27207, "illian": 25359, "illin": 36817, "illing": 7491, "illion": 10077, "illions": 46575, "illo": 6491, "illon": 18329, "ills": 5622, "illus": 43335, "illusion": 47462, "illy": 10758, "ilo": 11313, "ilogy": 48490, "ilon": 33982, "ilot": 20366, "ils": 5290, "ilst": 32482, "ilt": 10325, "ilton": 26533, "iltr": 48628, "iltration": 43605, "ilts": 33312, "ilty": 33576, "ilus": 37831, "ilver": 43206, "ily": 5846, "ilyn": 45410, "im": 757, "ima": 4261, "imag": 38606, "image": 20094, "images": 39472, "imal": 16980, "iman": 13101, "imar": 34599, "imaru": 48828, "imate": 16633, "imated": 24985, "imately": 44900, "imates": 34129, "imating": 35098, "imation": 39431, "imb": 16231, "imbabwe": 39329, "imble": 25794, "ime": 4235, "imedia": 34963, "imei": 47998, "imen": 34620, "imens": 43611, "imensional": 30846, "iment": 8913, "imental": 40955, "imentary": 44822, "iments": 25132, "imeo": 40247, "imer": 15677, "imes": 9452, "imester": 38417, "imet": 12965, "imeter": 28266, "imeters": 38983, "img": 34252, "imgur": 49589, "imi": 7517, "imil": 27550, "imilar": 36692, "imilation": 43616, "iminary": 27005, "imir": 32850, "imity": 45853, "imize": 41530, "imm": 13255, "immer": 15912, "immers": 17903, "immigrant": 28089, "immigration": 31793, "imming": 16364, "immune": 42866, "imo": 11332, "imon": 26298, "imony": 36828, "imore": 28545, "imoto": 36066, "imov": 32823, "imp": 11850, "impact": 32158, "impl": 38731, "import": 41975, "important": 23022, "imposed": 24039, "impro": 33491, "improve": 37362, "ims": 13776, "imsy": 38755, "imum": 40133, "imura": 41492, "imus": 40439, "in": 179, "ina": 1243, "inal": 6204, "inally": 30672, "inals": 17552, "inance": 13598, "inances": 47224, "inant": 40542, "inar": 22106, "inarily": 41145, "inary": 15548, "inas": 11275, "inate": 13014, "inated": 9339, "inately": 39670, "inates": 34244, "inating": 15647, "ination": 8111, "inational": 45188, "inations": 17808, "inator": 19936, "inators": 35077, "inatory": 42350, "inav": 46516, "inburgh": 44765, "inc": 3976, "incarn": 48910, "ince": 15062, "incent": 34457, "incerity": 47523, "inces": 47292, "inch": 3796, "inches": 31203, "incial": 42726, "incible": 46095, "incinn": 48409, "incinnati": 40783, "include": 47209, "includes": 25142, "including": 8529, "incoln": 37654, "income": 7214, "incre": 33008, "increasing": 32313, "inct": 24115, "inction": 40890, "inctions": 46350, "ind": 2028, "inda": 8865, "indal": 45259, "independence": 33821, "independent": 32982, "inder": 7026, "inders": 37861, "index": 18480, "inding": 24088, "individual": 42333, "indle": 38969, "indu": 36232, "induced": 29101, "inducing": 34909, "indust": 21267, "industrial": 27739, "ine": 833, "inea": 33581, "ined": 6158, "inel": 16653, "inelli": 29436, "inem": 10748, "inement": 47706, "inen": 11072, "inence": 39183, "inent": 19336, "inently": 43287, "iner": 5101, "ineries": 17892, "iners": 14231, "inery": 23904, "ines": 3141, "inese": 33965, "iness": 6601, "inet": 28430, "inez": 39045, "inf": 9433, "infect": 37597, "infeld": 35194, "inflamm": 46655, "inflammatory": 33824, "info": 23999, "information": 31480, "informed": 29068, "ing": 154, "inge": 18174, "inged": 25963, "ingen": 34264, "inger": 6082, "ingers": 35997, "inges": 29870, "ingham": 20117, "inging": 19384, "ingle": 18768, "ingly": 7790, "ingo": 22409, "ings": 1033, "ington": 6598, "ingu": 35308, "inguishable": 48980, "inguished": 31687, "inho": 13265, "ini": 2531, "inia": 38090, "inian": 28307, "inic": 35159, "inical": 44839, "ining": 6074, "inion": 31210, "inis": 25020, "inished": 45581, "init": 25153, "inite": 42524, "initely": 27941, "initial": 45696, "initialized": 49722, "inition": 48038, "initions": 49252, "inity": 16838, "ink": 4291, "inka": 18433, "inker": 30606, "inki": 46524, "inking": 18957, "inkle": 15673, "inks": 12935, "inky": 26749, "inline": 48865, "inn": 5246, "innacle": 30926, "innamon": 47975, "inner": 12247, "inness": 34253, "innie": 31854, "inning": 15853, "innon": 22863, "ino": 1696, "inoa": 38358, "inois": 36001, "inos": 10968, "inosaur": 47943, "inous": 41719, "input": 46797, "inqu": 32223, "ins": 1344, "inse": 46658, "insert": 43675, "inside": 36615, "insk": 24529, "inski": 12166, "insky": 16444, "inson": 9554, "inspired": 13028, "inst": 16063, "install": 39567, "installed": 39161, "instance": 48768, "instead": 38908, "instein": 40335, "insula": 48039, "insured": 43107, "int": 2544, "intage": 43288, "integ": 24894, "integer": 49465, "intel": 43066, "intelligence": 29812, "intend": 24656, "intendent": 47454, "intendo": 49229, "intensity": 38454, "intensive": 28447, "intent": 46188, "intention": 34095, "inter": 8007, "interest": 15979, "interested": 35471, "interesting": 42746, "interface": 47888, "intern": 44115, "internal": 37559, "international": 30877, "internet": 42182, "interpret": 41111, "interrupted": 46500, "inters": 38993, "interstitial": 49702, "intestinal": 46860, "inth": 35744, "into": 12473, "inton": 10528, "intosh": 42469, "introdu": 37343, "ints": 28954, "intuitive": 38459, "inus": 43263, "inv": 24701, "inventory": 48384, "inventoryQuantity": 50219, "invest": 12406, "invoke": 49573, "involved": 30013, "inx": 34511, "iny": 11287, "inyl": 47253, "io": 1020, "ioch": 46694, "iod": 22694, "iol": 14215, "iola": 22887, "iolet": 41790, "iological": 35948, "iologist": 24626, "iology": 17129, "iom": 27074, "ion": 1499, "iona": 26051, "ionage": 43150, "ional": 6073, "ione": 8525, "ioned": 33751, "ionic": 37115, "ionics": 39859, "ions": 2485, "iop": 28119, "ior": 7375, "iors": 10327, "ios": 4544, "iosis": 38115, "iosity": 45226, "iosyn": 49606, "iosyncr": 49159, "iot": 13214, "iotic": 26842, "iotics": 34339, "iots": 42392, "iott": 39222, "iour": 39192, "ious": 6514, "iously": 9997, "iov": 32822, "iovascular": 40789, "iox": 44882, "ioxid": 46565, "ioxide": 46536, "ip": 1588, "ipal": 32483, "ipation": 33412, "ipe": 11387, "iped": 34740, "ipedia": 47410, "ipeg": 44715, "ipel": 29531, "iper": 17453, "ipers": 33014, "ipes": 23011, "iph": 28778, "iphany": 39880, "iphate": 42072, "ipher": 38914, "ipient": 44392, "iping": 31401, "ipl": 28076, "iple": 42420, "ipment": 39737, "ipolar": 44708, "ipop": 42818, "ipp": 5600, "ipped": 8246, "ipper": 8288, "ippers": 14955, "ippery": 44610, "ippi": 37679, "ipping": 11813, "ipple": 37629, "ipples": 39453, "ippy": 31177, "ips": 7418, "ipt": 10455, "iq": 19582, "iqu": 9071, "ique": 5150, "iqueness": 49005, "iques": 16474, "iquette": 45836, "iquid": 42902, "ir": 853, "ira": 3578, "irable": 45770, "iral": 24811, "iration": 35294, "irc": 21163, "ircraft": 47393, "ird": 8602, "irds": 39977, "ire": 1885, "irect": 38806, "irection": 43606, "ired": 7651, "irement": 34074, "irements": 48227, "iren": 23832, "irens": 28025, "ires": 7948, "irez": 45082, "irgin": 41943, "iri": 6841, "irie": 36181, "iries": 19947, "irin": 35811, "iring": 9798, "iris": 36533, "irit": 30710, "irk": 10126, "irl": 12862, "irled": 35413, "irlf": 49185, "irlfriend": 38883, "irling": 25662, "irlwind": 47905, "irm": 9856, "irmation": 39490, "irmed": 9125, "irming": 20277, "irms": 21871, "iro": 4712, "iron": 11680, "irrel": 48226, "irs": 21098, "irsch": 30993, "irst": 17698, "irt": 9211, "irted": 31137, "irteen": 30990, "irth": 24208, "irting": 27181, "irts": 24546, "irtual": 49110, "irty": 32430, "iru": 23349, "irus": 19473, "iry": 12708, "is": 354, "isSpecial": 50214, "isSpecialOrderable": 50218, "isa": 6619, "isable": 30061, "isal": 26860, "isan": 22471, "isance": 42554, "isans": 24103, "isation": 3258, "isations": 27890, "isbury": 17262, "isc": 4473, "iscal": 26104, "isch": 13239, "ische": 17225, "ischer": 32949, "isco": 15069, "iscons": 49106, "isconsin": 47124, "iscopal": 47785, "iscover": 33951, "iscovered": 35840, "iscovery": 37121, "isd": 29306, "isdom": 46372, "ise": 1496, "isec": 45046, "ised": 1720, "isel": 28318, "isen": 16793, "iser": 5999, "isers": 13844, "ises": 5504, "iseum": 47687, "isexual": 45799, "isf": 32062, "ish": 1173, "isha": 9268, "ishable": 33864, "ished": 6555, "isher": 13761, "ishers": 21272, "ishes": 10776, "ishi": 12839, "ishing": 6234, "ishly": 27770, "ishment": 16812, "ishop": 44517, "ishops": 32084, "ishy": 44786, "isi": 8539, "isible": 38468, "isin": 29761, "isine": 40116, "ising": 3009, "ision": 10699, "isions": 12545, "isite": 46477, "isites": 48239, "isition": 39353, "isitions": 38345, "isive": 31287, "isively": 46504, "isk": 6812, "isks": 33240, "isky": 18845, "isl": 13714, "isle": 20491, "ism": 1809, "isma": 40837, "isman": 21581, "ismo": 19689, "isms": 28599, "isner": 35448, "iso": 16845, "isode": 48663, "isodes": 42722, "isoft": 47751, "isol": 36508, "ison": 4060, "isons": 24806, "isp": 19291, "ispers": 46190, "isphere": 48276, "iss": 3006, "issa": 12109, "issan": 39489, "issance": 44096, "isse": 8035, "ission": 27042, "issions": 31358, "isson": 19140, "issors": 45937, "issue": 25268, "issued": 17350, "issues": 40512, "issy": 20157, "ist": 661, "ista": 6377, "istan": 7566, "istance": 32556, "istani": 41364, "istant": 33388, "istar": 31732, "istas": 19679, "iste": 18495, "isted": 15346, "istence": 41177, "istent": 21464, "ister": 4742, "istered": 43215, "isters": 16729, "istic": 5580, "istical": 44573, "istically": 18281, "istics": 16307, "istine": 44300, "isting": 15528, "istle": 22855, "iston": 15819, "istor": 41726, "istors": 43951, "istrate": 18104, "istrates": 15596, "istration": 32078, "istries": 28463, "istry": 20217, "ists": 1952, "isu": 30569, "isure": 25145, "isy": 26351, "it": 405, "ita": 3119, "itability": 28567, "itable": 11010, "itably": 36244, "itage": 37061, "itaire": 44774, "ital": 8632, "itals": 19196, "itamin": 44780, "itan": 15181, "itance": 45172, "itans": 31520, "itant": 41448, "itar": 14369, "itarian": 20444, "itars": 45892, "itary": 16669, "itas": 15369, "itate": 12624, "itated": 15114, "itates": 38882, "itating": 22257, "itation": 12257, "itational": 17166, "itations": 29148, "itative": 26709, "itatively": 43127, "itbart": 43701, "itch": 3239, "itched": 17670, "itcher": 36519, "itches": 30312, "itchie": 23573, "itching": 22853, "ite": 1459, "itech": 30051, "itect": 37471, "ited": 4560, "itely": 41776, "item": 36907, "itement": 33144, "items": 46740, "itent": 37403, "iter": 8660, "iterator": 49861, "iterranean": 47578, "ites": 5110, "ith": 3432, "ithe": 21637, "ither": 15027, "ithering": 37414, "ithing": 44671, "ithmetic": 48961, "iths": 47029, "ithub": 49665, "iti": 4933, "itia": 37310, "itial": 48834, "itialized": 49243, "itially": 49848, "itic": 31128, "ities": 2192, "itimate": 39981, "itime": 46727, "iting": 2838, "ition": 7469, "itional": 24176, "itionally": 18579, "itions": 8237, "itious": 33494, "itis": 10100, "itism": 30619, "itive": 15589, "itiveness": 43468, "itives": 35143, "itivity": 26358, "itiz": 30362, "itized": 37174, "itizen": 31020, "itizens": 44212, "itle": 46398, "itled": 22764, "itles": 46913, "itness": 33909, "ito": 4842, "itol": 20884, "iton": 24899, "itone": 38704, "itor": 7852, "itored": 45543, "itors": 9314, "itory": 38414, "itous": 34669, "itri": 30142, "its": 2629, "itsch": 28046, "itsu": 27315, "itt": 2582, "itta": 32154, "ittal": 20743, "ittance": 35926, "itte": 13537, "itted": 16430, "ittee": 45798, "ittees": 45625, "itten": 15418, "ittens": 43443, "itter": 7915, "ittered": 46875, "itters": 27146, "itting": 9451, "ittle": 21385, "itto": 29765, "itton": 23121, "itty": 18308, "itu": 15998, "itual": 47388, "itud": 40073, "itude": 11964, "itudes": 25917, "itudinal": 46212, "iture": 19103, "itures": 37529, "itus": 20818, "itute": 26261, "itutes": 39626, "itution": 26013, "itutional": 12279, "ity": 1571, "itz": 4494, "itzer": 19903, "itzerland": 41607, "it\u00c3\u00a9": 21193, "iu": 9060, "ium": 4031, "ius": 6125, "iuses": 30152, "iv": 1879, "iva": 7222, "ivable": 29226, "ivably": 40548, "ival": 11221, "ivalent": 32995, "ivalry": 43823, "ivals": 34181, "ivan": 18356, "ivari": 45982, "ivariate": 48449, "ivas": 20559, "ivated": 23907, "ivating": 28191, "ivation": 38591, "ive": 2088, "ived": 19133, "ively": 6608, "iven": 19239, "iveness": 12367, "iver": 8538, "ivered": 35158, "ivering": 30579, "iverpool": 47683, "ivers": 10744, "iversal": 49663, "iversary": 42797, "iverse": 32273, "iversity": 31104, "ivery": 26230, "ives": 3699, "ivia": 40978, "ivic": 41096, "ivid": 6837, "ividual": 49531, "ividually": 44658, "ivil": 41868, "iving": 9404, "ivism": 33607, "ivist": 35012, "ivities": 34201, "ivity": 9866, "ivo": 9697, "ivot": 35709, "iw": 10432, "ix": 3181, "ixed": 24194, "ixel": 47944, "ixels": 41699, "ixie": 24006, "ixir": 46180, "ixon": 28427, "ixt": 37308, "ixtape": 41212, "ixties": 38180, "ixture": 46368, "ixtures": 38730, "ixty": 29262, "iy": 4911, "iya": 10252, "iyah": 33210, "iz": 1210, "iza": 10071, "izabeth": 46370, "izable": 38142, "izard": 44417, "izards": 39700, "izarre": 40963, "ization": 1938, "izational": 43801, "izations": 18391, "ize": 2072, "ized": 1538, "izen": 26821, "izens": 38839, "izer": 6315, "izers": 11574, "izes": 7396, "izing": 2787, "izo": 23747, "izon": 30397, "izons": 36645, "izont": 48804, "izontal": 41539, "izoph": 49560, "izophren": 47325, "izu": 17939, "izz": 6352, "izza": 35280, "izzard": 29549, "izzle": 37865, "izzy": 30531, "j": 267, "ja": 1910, "jab": 39805, "jac": 39066, "jack": 23018, "jad": 18531, "jah": 17140, "jam": 26464, "jamin": 39730, "jan": 9193, "jandro": 25787, "jar": 11978, "jas": 19798, "java": 43830, "javascript": 49596, "jay": 15448, "jc": 36699, "je": 2359, "ject": 21517, "jected": 31899, "jection": 35892, "jee": 11650, "jen": 7623, "jer": 11513, "jet": 6622, "jew": 34929, "ji": 5186, "jiang": 20852, "jin": 17177, "jing": 38310, "jit": 17076, "jj": 33850, "jl": 43720, "jo": 3548, "job": 30056, "jobs": 41207, "john": 25304, "joice": 47154, "join": 26960, "joined": 37097, "joining": 45683, "jon": 23368, "jong": 40435, "journal": 15545, "joy": 20768, "jp": 34897, "jpg": 10474, "jri": 47019, "jriwal": 48057, "js": 21978, "json": 40962, "ju": 7488, "jud": 12864, "judicial": 31094, "jug": 39909, "jump": 43750, "jun": 18115, "jured": 24518, "juries": 30832, "jury": 38160, "just": 8987, "justice": 28244, "juven": 45257, "k": 330, "kB": 47383, "kHz": 46858, "ka": 2348, "kai": 42785, "kamp": 21170, "kan": 11334, "kar": 8722, "kas": 28470, "kat": 18287, "kay": 33206, "kaya": 26312, "kb": 41238, "ke": 1071, "ked": 10916, "kee": 27408, "keep": 27390, "keeper": 12873, "keepers": 15214, "keeping": 12609, "kees": 41563, "kef": 47915, "kefeller": 49158, "kel": 5576, "keleton": 44869, "keley": 42676, "kell": 25723, "ken": 6944, "kens": 34400, "kept": 38584, "ker": 5029, "kered": 20093, "kernel": 48658, "kers": 13078, "kes": 7339, "ket": 19613, "key": 5282, "keye": 26291, "keyes": 18275, "keys": 18161, "kg": 9043, "kh": 8467, "ki": 3144, "kick": 13643, "kid": 30704, "kids": 28371, "kie": 24831, "kies": 16731, "kil": 15870, "kill": 16424, "killed": 39132, "killer": 30563, "killers": 27621, "killing": 34549, "kin": 4245, "kind": 11584, "king": 7037, "kins": 7327, "kinson": 34924, "kish": 24954, "kiss": 37750, "kit": 23199, "kj": 36085, "kk": 27762, "kl": 16291, "km": 7203, "kn": 15204, "knife": 41703, "knit": 29008, "know": 27066, "knowledge": 44228, "known": 6421, "ko": 3852, "kok": 42915, "kos": 27179, "kov": 11456, "kowski": 11779, "kr": 32059, "krit": 46366, "ks": 2258, "ksh": 19437, "kson": 27980, "kt": 7282, "ktop": 49540, "ku": 8644, "kun": 35889, "kus": 26444, "kw": 33294, "kward": 41609, "ky": 4122, "l": 462, "la": 2560, "lab": 31479, "label": 33480, "lace": 44603, "lad": 15356, "laden": 20724, "lag": 23546, "lah": 30166, "lahoma": 39572, "laim": 45431, "lain": 32270, "lake": 11985, "lam": 5112, "lambda": 49744, "lamm": 43442, "lan": 6847, "lance": 42162, "land": 1245, "lander": 14862, "landers": 22372, "landish": 48453, "lando": 29028, "lands": 8391, "lane": 21765, "lang": 32373, "language": 19527, "lap": 22489, "lar": 10898, "larg": 42710, "large": 11802, "largest": 8377, "las": 15086, "lash": 42044, "lass": 27355, "lasses": 40664, "last": 13751, "lasting": 25179, "lat": 12805, "latable": 31269, "late": 19593, "lated": 32914, "later": 36600, "latest": 44957, "lation": 35019, "lations": 48111, "lator": 44006, "laugh": 43828, "laughs": 36411, "laughter": 42999, "laun": 30866, "launch": 37757, "laus": 33012, "lav": 28572, "law": 4656, "laws": 18712, "lay": 8433, "layer": 39165, "layout": 48842, "lb": 17243, "lbs": 29882, "lc": 45071, "ld": 4779, "lda": 34054, "lde": 23966, "lder": 13034, "ldom": 47299, "ldon": 28520, "le": 459, "lead": 32673, "leader": 19086, "leaders": 23240, "leading": 10140, "leaf": 24999, "league": 10925, "lean": 21926, "leaning": 18813, "leanor": 47836, "leans": 45402, "lear": 35467, "learn": 38229, "learning": 29888, "lease": 40871, "leased": 35830, "leases": 14931, "leasing": 39149, "leave": 38457, "leck": 20626, "lect": 17601, "lected": 17970, "lectic": 47113, "lection": 20576, "lections": 30653, "led": 1329, "ledge": 21945, "ledged": 45666, "lee": 7445, "leen": 17733, "leep": 45841, "lees": 35379, "leeve": 40354, "left": 6960, "leg": 4308, "legal": 27310, "legate": 35976, "legates": 34220, "lege": 37777, "legged": 28570, "legram": 34766, "legraph": 39156, "leground": 42300, "lehem": 48248, "leigh": 19343, "lein": 22593, "lem": 10770, "lement": 13767, "lements": 24041, "lems": 46488, "len": 8476, "lene": 24398, "leneck": 42041, "leness": 44373, "length": 16096, "leon": 38904, "ler": 1371, "lers": 7906, "les": 1634, "lesh": 42458, "lesi": 46263, "lesiastical": 46377, "less": 1672, "lessly": 12445, "lessness": 16337, "lest": 35230, "let": 2716, "letal": 43669, "letcher": 42795, "lete": 16746, "leted": 36140, "letes": 25773, "lethal": 41700, "letico": 12533, "leton": 9991, "lets": 10219, "lett": 8211, "lette": 13476, "letter": 36419, "letters": 34063, "lev": 9525, "levant": 43986, "levard": 40433, "level": 4483, "levels": 44280, "levision": 41605, "lex": 14726, "ley": 607, "leys": 21242, "lez": 23250, "lf": 13491, "li": 3572, "lia": 14190, "liam": 37003, "liament": 37078, "lib": 34748, "liber": 39176, "liberal": 37483, "library": 31674, "lic": 5895, "lication": 48020, "license": 46344, "licensed": 26829, "lich": 9182, "licks": 36562, "lict": 29525, "licted": 29637, "liction": 38068, "licts": 43307, "lie": 11527, "lied": 17366, "lier": 14730, "lies": 15124, "liest": 27911, "lif": 26264, "life": 5367, "lift": 26983, "lifting": 22529, "lig": 17218, "liga": 43765, "light": 6991, "lighting": 30181, "lightly": 41720, "lights": 20888, "lihood": 45286, "lik": 16741, "like": 3341, "likely": 30266, "lim": 10839, "lime": 42969, "limit": 42425, "limited": 27829, "limits": 38942, "lin": 2614, "line": 1902, "linear": 43871, "lined": 17422, "liner": 17656, "liners": 18444, "lines": 11723, "liness": 24060, "ling": 1527, "linger": 29529, "lings": 16283, "lington": 18487, "lining": 16526, "link": 12139, "linked": 16166, "links": 40822, "lins": 34714, "linux": 47694, "lio": 29067, "lip": 33330, "lique": 29609, "liquid": 42884, "lis": 14496, "lish": 21457, "lished": 49411, "lisher": 45487, "lishes": 46808, "lishing": 40272, "list": 8458, "listed": 11301, "lists": 23583, "lit": 13534, "lite": 33701, "liter": 19402, "literally": 39417, "little": 27635, "liv": 31332, "live": 16244, "lived": 18062, "living": 26111, "livion": 42955, "livious": 48797, "ll": 890, "lla": 5104, "llah": 33511, "llan": 30351, "lled": 9970, "ller": 12853, "llers": 20855, "lli": 10054, "lling": 7633, "llo": 9905, "llor": 31836, "llular": 45357, "lly": 13861, "ln": 8502, "lo": 4082, "load": 16204, "loaded": 24919, "loader": 45910, "loading": 25547, "loads": 34888, "loc": 26516, "local": 18076, "localhost": 48770, "location": 41829, "lock": 8292, "locked": 19588, "locking": 42474, "locks": 37536, "loe": 15290, "log": 12376, "login": 47828, "lol": 46078, "lon": 10849, "long": 3479, "loo": 37521, "look": 13724, "looking": 3690, "loop": 31290, "lopp": 47338, "lor": 10159, "lord": 30669, "lords": 40739, "lore": 44535, "los": 22324, "loss": 13242, "lost": 27905, "lot": 17508, "lov": 26979, "love": 17693, "loving": 23760, "low": 5481, "lower": 29668, "lp": 39031, "lr": 35265, "ls": 6634, "lt": 7984, "lu": 6487, "lua": 47132, "luaj": 49886, "lucent": 48638, "luck": 20540, "lude": 34646, "luence": 31759, "luent": 42517, "lund": 23433, "lus": 23761, "lust": 27682, "luster": 48202, "lux": 27643, "lv": 25091, "lves": 30460, "lvl": 49793, "ly": 352, "lyak": 47226, "lycer": 47688, "lying": 13010, "lymp": 31434, "lyn": 7436, "lynn": 26153, "lys": 32142, "lyss": 19087, "l\u00c3\u00a9": 24227, "m": 119, "mA": 47602, "mAh": 23516, "mL": 43619, "ma": 1916, "mable": 35128, "mac": 15439, "machine": 37556, "mad": 17497, "made": 7078, "madeupword0000": 50261, "madeupword0001": 50262, "madeupword0002": 50263, "mag": 16266, "mage": 43807, "magic": 40481, "maid": 16355, "mail": 6380, "mails": 34554, "main": 17894, "major": 25430, "majority": 19517, "make": 19746, "maker": 5406, "makers": 6040, "makes": 39082, "making": 5349, "mal": 10417, "male": 31336, "malink": 38936, "mallow": 37359, "man": 397, "manac": 44569, "managed": 28770, "management": 14668, "manager": 37096, "mand": 14785, "manent": 39713, "mania": 34865, "mann": 4621, "mans": 18370, "manship": 17187, "manuel": 39128, "manufact": 29280, "many": 19827, "map": 32557, "maps": 44754, "mar": 3916, "mare": 34870, "mares": 47763, "marg": 43037, "margin": 34001, "marine": 37746, "mark": 6920, "marked": 18584, "market": 2989, "markets": 12829, "marks": 23959, "marriage": 42855, "married": 42283, "mart": 15964, "mary": 22501, "mas": 13738, "mask": 43776, "mass": 27289, "massive": 31065, "mast": 40668, "master": 12974, "masters": 34992, "mat": 9244, "match": 10565, "matched": 38331, "mate": 10008, "material": 36739, "mates": 11139, "math": 40051, "matic": 29753, "matical": 45816, "matically": 45236, "matter": 43956, "max": 29459, "maximum": 41976, "maxwell": 49204, "may": 12488, "maybe": 31501, "mb": 6648, "mber": 34707, "mberg": 39137, "mble": 46831, "mbol": 43891, "mbuds": 48469, "mbudsman": 24565, "mc": 29297, "md": 26296, "me": 1794, "meal": 32218, "mean": 43348, "meaning": 24872, "measures": 37939, "meat": 38542, "med": 4567, "medi": 34658, "media": 5535, "mediate": 30771, "mediated": 43728, "mediately": 36382, "medical": 30885, "medium": 37661, "meet": 29933, "meg": 16258, "mega": 44238, "meier": 29174, "mel": 17170, "melon": 34092, "mem": 25683, "member": 8648, "members": 23742, "memory": 44290, "men": 2262, "mens": 30955, "ment": 1757, "mental": 36203, "mentation": 36197, "mented": 19601, "mentioned": 39346, "ments": 2963, "menu": 45801, "mer": 2089, "merce": 48908, "mercial": 49140, "mere": 25416, "merga": 41386, "meric": 30998, "mers": 12822, "mes": 12579, "mess": 38177, "message": 44773, "met": 5646, "meta": 46876, "metadata": 43702, "metal": 32961, "meter": 15139, "method": 45416, "methyl": 46988, "metic": 45847, "metics": 32056, "metry": 42600, "meyer": 27272, "mg": 22984, "mi": 5408, "mia": 24238, "miah": 47755, "mic": 15796, "micro": 35228, "microsoft": 48048, "mid": 16079, "middle": 29917, "midt": 32623, "mie": 23738, "might": 35457, "mil": 22238, "mile": 7800, "military": 29317, "mill": 15466, "million": 4416, "milo": 49427, "min": 4691, "mination": 42174, "mind": 28583, "minded": 11261, "mine": 13523, "minecraft": 49773, "minent": 42522, "ming": 7059, "mingham": 42754, "mington": 36884, "mini": 32081, "minimum": 43410, "mining": 33527, "minist": 38466, "ministic": 47907, "mins": 30658, "minster": 33422, "mint": 30732, "minus": 32501, "minute": 4530, "mir": 16977, "mire": 29661, "mis": 21363, "misc": 45321, "miss": 17745, "missible": 36507, "missing": 41947, "mission": 12478, "missions": 23363, "missive": 41687, "mist": 30500, "mit": 8974, "mite": 42409, "mith": 22357, "mits": 21188, "mitt": 22141, "mitted": 13979, "mittedly": 36946, "mitter": 44370, "mitting": 37740, "mix": 39915, "mk": 43503, "ml": 18517, "mm": 5471, "mma": 35221, "mmm": 41311, "mmmm": 46677, "mn": 17673, "mo": 4992, "mob": 37608, "mobi": 49001, "mobile": 25254, "mod": 14377, "mode": 42253, "model": 21818, "models": 43457, "moderate": 19397, "modern": 28810, "modified": 44887, "mods": 49301, "module": 48095, "modules": 48666, "moil": 46981, "mol": 37145, "mology": 40006, "mom": 27363, "mon": 5806, "monary": 43462, "mond": 8876, "monds": 21229, "mone": 28913, "money": 17479, "mong": 27669, "monitor": 38575, "monkey": 45384, "mons": 18216, "monster": 44576, "mont": 7861, "month": 2151, "months": 34606, "monton": 43323, "mony": 27583, "moon": 16956, "mop": 45267, "mopolitan": 30613, "mor": 15188, "moral": 32661, "more": 4321, "morning": 24863, "morph": 47716, "morrow": 48180, "mort": 22351, "mortem": 29108, "mos": 14666, "mosp": 46032, "most": 7877, "mostly": 34663, "mot": 25331, "mother": 19456, "motion": 35474, "mount": 17336, "mounted": 31034, "mouse": 45052, "mouth": 13848, "move": 30191, "movie": 38428, "moving": 19838, "mp": 6195, "mpeg": 49221, "mph": 17055, "mpire": 18883, "mr": 35685, "ms": 4339, "msg": 48593, "mson": 41972, "mt": 16100, "mu": 24249, "much": 28431, "mud": 40898, "mult": 42527, "multi": 42274, "multipl": 48831, "multiple": 34654, "mun": 20614, "mund": 34140, "munition": 48899, "mur": 20541, "mus": 13792, "music": 28400, "must": 26895, "mut": 26121, "mx": 42385, "my": 4783, "myra": 38978, "mys": 17113, "n": 282, "na": 2133, "nah": 29579, "nai": 39089, "naire": 45349, "naires": 34162, "naissance": 48580, "nam": 8697, "name": 13650, "named": 26442, "names": 37815, "namese": 47650, "nan": 10197, "nance": 39877, "nant": 26665, "nants": 47448, "nar": 11296, "nard": 23400, "nas": 22118, "nat": 26992, "natal": 42135, "nation": 17409, "national": 11535, "native": 34551, "natural": 25270, "nature": 43102, "natureconservancy": 49990, "nav": 35608, "nb": 40460, "nc": 11326, "nce": 15285, "nces": 47569, "nd": 1187, "nda": 24407, "nder": 10330, "ndra": 36470, "ndum": 39104, "ne": 858, "nea": 22423, "neapolis": 46815, "near": 34664, "neath": 43778, "neau": 21957, "nec": 26371, "necess": 46288, "necessary": 37798, "neck": 20020, "nect": 45114, "ned": 7456, "nee": 14209, "need": 30484, "needed": 14546, "needs": 38356, "neg": 23156, "negative": 33407, "negie": 48451, "nel": 18902, "nell": 13957, "nels": 40543, "nen": 19596, "ner": 1396, "nered": 30815, "nerg": 27093, "nergy": 38234, "ners": 7130, "nery": 25736, "nes": 4977, "nesday": 46836, "nesia": 40324, "nesium": 45684, "nesota": 46295, "ness": 1825, "nesses": 43010, "nesty": 45154, "net": 4135, "netflix": 47273, "netic": 45423, "nets": 39939, "nette": 25582, "network": 34728, "neum": 45042, "neutral": 12516, "never": 20042, "new": 4651, "news": 2926, "nex": 32918, "nexpected": 42537, "next": 25616, "nexus": 48559, "ney": 2596, "neys": 30915, "ng": 2590, "ngth": 49572, "ni": 5107, "nia": 17493, "nian": 29366, "nic": 12979, "nice": 34033, "nick": 16346, "nie": 7468, "night": 8498, "nih": 24469, "nik": 8256, "nikov": 32371, "nil": 42391, "nin": 27605, "nine": 22255, "ning": 3509, "nings": 9523, "nington": 23361, "niper": 48331, "nir": 44000, "nis": 10892, "nit": 39290, "nl": 35760, "nm": 28235, "nn": 15688, "no": 2362, "nob": 33212, "node": 46840, "nom": 13681, "non": 13424, "none": 39763, "noon": 20466, "nor": 21651, "norm": 42258, "normal": 21113, "north": 25407, "nos": 29708, "nosis": 32444, "nostic": 40997, "not": 3654, "notation": 44851, "notations": 43920, "note": 32903, "notes": 29369, "nothing": 23702, "notice": 44264, "noticed": 47202, "nov": 33278, "nova": 38823, "now": 8310, "nown": 42114, "nox": 47484, "noxious": 48165, "np": 44976, "nr": 37643, "ns": 6852, "nsic": 47409, "nsics": 34474, "nt": 3999, "ntax": 49529, "ntil": 49497, "nton": 30046, "nu": 18373, "nuclear": 31242, "null": 15755, "num": 42666, "number": 30695, "numbered": 45017, "nut": 10873, "nutrition": 44895, "nuts": 22483, "nv": 37594, "nw": 45372, "ny": 2855, "nyder": 45901, "nz": 22973, "o": 139, "oS": 42987, "oa": 8271, "oad": 20657, "oaded": 48863, "oak": 32111, "oan": 26681, "oard": 37021, "oat": 34827, "ob": 2413, "oba": 19614, "obal": 37005, "obar": 22468, "obb": 25795, "obbies": 47991, "obby": 27825, "obe": 14004, "ober": 24761, "obi": 15919, "obia": 33693, "obic": 30059, "obil": 31474, "obile": 21066, "obiles": 32864, "obin": 39092, "obj": 46134, "object": 40412, "objects": 48450, "obl": 33449, "obo": 18516, "obook": 42581, "obos": 40665, "obs": 14247, "oby": 22664, "obyl": 43665, "oc": 1975, "oca": 14075, "ocado": 40159, "ocal": 21103, "ocally": 46746, "ocaly": 47582, "ocalypse": 45688, "ocalyptic": 41855, "ocamp": 48137, "ocard": 43682, "ocate": 22486, "ocated": 23283, "ocating": 18106, "ocation": 15644, "ocations": 29876, "ocative": 36041, "ocaust": 43328, "occ": 23462, "occup": 32283, "occupied": 22385, "ocene": 42416, "ocent": 41361, "ocese": 12074, "och": 4306, "oche": 18339, "ochem": 41438, "ochemical": 43941, "ochemistry": 39917, "ochet": 39911, "ochond": 46602, "oci": 17641, "ocial": 35646, "ociate": 43097, "ociated": 47422, "ociation": 41156, "ocide": 45044, "ocious": 42148, "ocity": 36139, "ock": 3343, "ocked": 9596, "ocker": 23145, "ocket": 31629, "ockets": 40628, "ockey": 16303, "ocking": 12088, "ocks": 6368, "ocl": 40273, "oco": 11959, "ocobo": 49694, "ococ": 36240, "ocol": 23558, "ocolate": 43910, "ocom": 43779, "ocon": 33955, "ocr": 32508, "ocracy": 30129, "ocrat": 22730, "ocrates": 47845, "ocratic": 23337, "ocrats": 33335, "ocre": 47714, "ocrin": 42621, "ocrine": 41828, "ocry": 45756, "oct": 32643, "ocular": 35231, "ocument": 47432, "ocumented": 45458, "ocus": 23189, "ocused": 38787, "ocusing": 34722, "ocy": 30321, "ocyte": 45488, "ocytes": 44601, "od": 1630, "oda": 11939, "odan": 44892, "oday": 23568, "odcast": 45795, "odd": 13533, "odder": 46549, "oddy": 28375, "ode": 4636, "oded": 31819, "oder": 15362, "odes": 19160, "odge": 20305, "odi": 15457, "odiac": 33903, "odic": 30054, "odied": 44476, "odies": 27799, "oding": 19519, "odium": 41310, "odka": 40677, "odo": 15537, "odon": 41839, "odor": 28145, "odore": 47648, "odox": 47345, "ods": 20529, "odus": 45933, "ody": 9956, "odynam": 48009, "odynamic": 35357, "odynamics": 41203, "oe": 3540, "oen": 18057, "oenix": 42956, "oes": 8013, "oeuv": 41308, "of": 1116, "ofer": 20779, "off": 1529, "offensive": 34361, "offer": 33946, "offic": 27257, "office": 23252, "official": 24132, "offs": 10816, "offset": 48025, "ofi": 19215, "oft": 20168, "often": 34378, "og": 2154, "oga": 10447, "ogan": 17302, "ogen": 11575, "ogene": 44288, "ogeneity": 47270, "ogeneous": 42019, "ogenesis": 43333, "ogenic": 23982, "ogenous": 42825, "ogens": 42188, "ogether": 40865, "ogg": 6038, "ogged": 29519, "ogging": 24096, "oggle": 41971, "oggles": 45243, "ogh": 28552, "ogi": 22516, "ogical": 32481, "ogie": 29710, "ogl": 25326, "ogle": 32507, "oglobin": 43202, "oglu": 24886, "ogly": 39218, "ogn": 18857, "ognitive": 45709, "ogo": 14744, "ogram": 19673, "ograms": 39450, "ograp": 45724, "ograph": 22731, "ographed": 26397, "ographer": 17115, "ographers": 30784, "ographic": 25510, "ographical": 25032, "ographically": 33195, "ographics": 43685, "ographies": 24015, "ographs": 30725, "ography": 10486, "ogs": 17821, "ogue": 10149, "ogun": 37803, "ogy": 21370, "ogyn": 46730, "oh": 2678, "oha": 15202, "ohan": 14669, "ohl": 24466, "ohm": 43275, "ohn": 17648, "oho": 24019, "ohyd": 46506, "ohydrate": 47238, "oi": 12467, "oice": 41689, "oid": 12572, "oidal": 44405, "oided": 48597, "oids": 22926, "oil": 14189, "oiler": 46434, "oin": 23228, "oine": 21012, "oing": 26856, "oint": 15494, "ointed": 26427, "ointment": 36113, "oir": 13878, "oire": 41154, "ois": 12992, "oise": 22941, "oit": 21058, "oj": 4203, "oji": 16873, "ojure": 49864, "ok": 1638, "oka": 12999, "okane": 47851, "oke": 5361, "oked": 17477, "okemon": 49623, "oken": 22036, "oker": 21783, "okers": 34144, "okes": 6568, "oki": 28439, "okia": 43946, "okin": 36557, "oking": 14805, "okingly": 29954, "oko": 11136, "oks": 17015, "oku": 20714, "oky": 24878, "ok\u00c3\u00a9": 48344, "ol": 1168, "ola": 3019, "olan": 13887, "oland": 31788, "olar": 19231, "olars": 43018, "olas": 17084, "olate": 41511, "olated": 39308, "olation": 35626, "old": 279, "olded": 40256, "oldemort": 49552, "older": 33780, "olding": 30923, "oldown": 49950, "olds": 10736, "ole": 4104, "olean": 48547, "oled": 30304, "olen": 22370, "oleon": 47140, "oler": 32728, "olerance": 29255, "oles": 7003, "olesc": 42612, "olescent": 43979, "olester": 44305, "olesterol": 46268, "oley": 27485, "olf": 14927, "oli": 6483, "olia": 23254, "oliath": 39283, "oliberal": 47520, "olic": 12589, "olicited": 33358, "olics": 45523, "olicy": 48892, "olid": 30912, "olin": 21716, "olina": 27343, "oline": 18675, "oling": 31992, "olini": 35257, "olis": 25628, "olit": 20726, "olitan": 45021, "olith": 41894, "olithic": 36941, "olitical": 37149, "olitics": 39393, "olition": 40809, "olk": 14024, "olkien": 49592, "oll": 3937, "olla": 19733, "ollah": 27266, "ollar": 38298, "ollen": 29091, "oller": 30428, "ollo": 38520, "ollow": 40686, "ollower": 47808, "olls": 23673, "olly": 10147, "ollywood": 9718, "oln": 33537, "olo": 5675, "olog": 8982, "ologic": 26374, "ological": 9779, "ologically": 30570, "ologies": 20643, "ologist": 6393, "ologists": 10974, "ologne": 45825, "ologue": 28789, "ology": 4383, "olon": 40678, "olor": 37194, "olph": 32489, "olphin": 44782, "olphins": 46053, "ols": 11925, "olson": 44140, "olt": 11499, "olulu": 47969, "olute": 27184, "olutely": 40716, "olution": 23794, "olutions": 30445, "olve": 18224, "olved": 19084, "olver": 35934, "olves": 34190, "olving": 21241, "oly": 15022, "olyn": 38290, "om": 1075, "oma": 4982, "omach": 44637, "omal": 38868, "omaly": 47290, "oman": 16187, "omas": 27745, "omatic": 29177, "omb": 5223, "ombat": 45204, "ombie": 42816, "ombies": 48325, "ombo": 21931, "ombs": 33726, "ome": 4399, "omed": 12781, "omedical": 39820, "omen": 14900, "omer": 11032, "omers": 27312, "omes": 9898, "omet": 11174, "ometer": 12687, "ometers": 33794, "omething": 47486, "ometime": 40034, "ometimes": 49766, "ometown": 33117, "ometric": 22356, "ometry": 40899, "omever": 40612, "omew": 25741, "omez": 40304, "omi": 18832, "omial": 48866, "omic": 30344, "omical": 40421, "omics": 26382, "omin": 18121, "ominated": 23896, "omination": 43539, "oming": 9410, "ominium": 23555, "omm": 8615, "ommel": 36164, "ommod": 43331, "omnia": 45833, "omo": 13318, "omon": 28344, "omore": 22961, "omorph": 45222, "omorphic": 45758, "omp": 7474, "ompl": 40712, "oms": 6806, "omsday": 41334, "omsky": 48322, "omy": 13604, "on": 261, "ona": 4488, "onal": 20171, "once": 25252, "ond": 2832, "onda": 11192, "onday": 46328, "onde": 11950, "onder": 17037, "onding": 40279, "ondo": 11168, "ondon": 24639, "onds": 25343, "onduct": 26593, "onductor": 13017, "one": 1264, "oned": 11469, "onel": 38055, "oneliness": 46292, "onement": 30252, "onen": 19938, "onent": 40400, "onential": 47782, "onents": 19245, "oner": 9604, "ones": 6909, "onest": 28180, "onet": 39677, "onew": 32991, "oney": 6071, "ong": 1657, "onga": 22230, "onge": 28879, "ongevity": 46403, "ongh": 41860, "ongo": 16660, "ongs": 22321, "ongyang": 46125, "oni": 5270, "onia": 15402, "onial": 36072, "onian": 26399, "onic": 10003, "onica": 29326, "onics": 34200, "onies": 17130, "oning": 11626, "onis": 25516, "onite": 39360, "online": 20412, "only": 8338, "onna": 19864, "onnaissance": 44455, "onne": 31361, "ono": 16405, "onom": 20890, "onomic": 42141, "onomous": 24239, "onomy": 38217, "ons": 1790, "onse": 33098, "onsense": 34040, "onsequ": 37347, "onso": 25914, "onson": 26942, "ont": 2533, "onte": 13757, "ontent": 46894, "onto": 27227, "onut": 46371, "ony": 6119, "onym": 41433, "onymous": 31386, "onyms": 45653, "onz": 18085, "oo": 3036, "ood": 5715, "oodle": 36161, "oodoo": 40392, "oof": 37298, "ook": 6576, "ooked": 30134, "ookie": 31113, "ooks": 28937, "ooky": 29093, "ool": 8110, "oola": 41395, "ools": 22890, "oom": 11691, "ooming": 40666, "oon": 3863, "oons": 19375, "ooo": 41242, "oooo": 40386, "oooooooo": 47879, "oooooooooooooooo": 49294, "oop": 18042, "oops": 37843, "oor": 4623, "oos": 16154, "oot": 9210, "ooter": 15917, "ooters": 22923, "ooth": 22571, "oother": 49012, "ooting": 23894, "oots": 22747, "op": 1517, "opa": 24104, "opal": 25396, "opard": 23364, "opath": 43671, "opathic": 41130, "opathy": 31395, "opausal": 42363, "ope": 9877, "oped": 15911, "open": 12592, "opened": 29404, "opening": 12211, "opens": 35800, "oper": 8428, "operated": 31689, "operation": 20829, "operative": 23655, "operator": 45180, "opers": 18158, "opes": 18836, "opez": 41816, "oph": 6673, "ophe": 32232, "ophen": 44738, "opher": 35885, "ophers": 30482, "ophical": 47212, "ophile": 35870, "ophob": 46001, "ophobia": 24938, "ophobic": 31209, "ophon": 34579, "ophone": 25999, "ophy": 39305, "ophys": 44677, "ophysical": 37846, "opia": 26184, "opian": 45214, "opic": 18137, "oping": 12232, "opl": 25934, "oplan": 33546, "ople": 28948, "oples": 46051, "opol": 34768, "opolis": 42310, "opoly": 30369, "opot": 43895, "opoulos": 15872, "opp": 10223, "oppable": 46160, "opped": 35575, "oppers": 8984,
[...]
